[PAD]	0
[UNK]	0
[CLS]	0
[SEP]	0
▁the	-4.27748
▁và	-4.75832
▁to	-4.78153
▁and	-4.86704
▁có	-4.87401
▁của	-4.89738
▁là	-5.00439
▁of	-5.06642
▁I	-5.10462
▁a	-5.10518
▁các	-5.18043
▁được	-5.23791
▁không	-5.31118
▁cho	-5.31427
▁một	-5.37557
▁trong	-5.39238
▁với	-5.40984
▁in	-5.4654
▁người	-5.56572
▁những	-5.59899
▁	-5.69533
▁was	-5.69589
▁để	-5.75665
▁thể	-5.76709
▁that	-5.78446
▁đã	-5.79522
▁you	-5.83833
▁bạn	-5.86255
▁công	-5.91024
▁it	-5.92712
▁s	-5.93491
▁her	-5.95517
▁này	-5.95989
▁như	-5.98394
▁đến	-5.99083
▁he	-5.999
▁his	-6.0176
▁khi	-6.04618
▁sẽ	-6.05499
▁ra	-6.06329
▁làm	-6.06947
▁về	-6.07883
▁nhiều	-6.13287
▁ở	-6.14055
▁từ	-6.15478
▁cũng	-6.15678
▁tại	-6.16832
▁with	-6.17674
▁for	-6.1846
s	-6.18756
▁t	-6.19016
▁vào	-6.20077
▁hàng	-6.21261
▁trên	-6.23328
▁đó	-6.23511
▁on	-6.24373
▁lại	-6.24523
▁sự	-6.26513
▁nhà	-6.26897
▁dụng	-6.29998
▁hiện	-6.30066
▁is	-6.30451
▁as	-6.31884
▁việc	-6.32382
▁đầu	-6.33084
▁động	-6.34272
▁thành	-6.34922
▁nhất	-6.35058
▁bị	-6.35124
▁phải	-6.37088
▁năm	-6.37287
▁thì	-6.39335
▁học	-6.39771
▁had	-6.40111
▁The	-6.4038
▁mà	-6.4055
▁số	-6.40619
▁chỉ	-6.4082
▁she	-6.41533
▁nước	-6.4413
▁ngày	-6.47145
▁do	-6.47656
▁“	-6.4841
▁hợp	-6.48425
▁at	-6.4907
▁my	-6.49219
▁tôi	-6.50962
▁chính	-6.51831
▁sản	-6.52283
▁be	-6.52792
▁hơn	-6.53299
▁He	-6.5339
▁định	-6.54975
▁giá	-6.55686
▁me	-6.56427
▁quan	-6.56691
▁cao	-6.57231
▁nhân	-6.58671
▁nên	-6.60837
▁đi	-6.6109
▁mình	-6.61207
▁rất	-6.61894
▁còn	-6.62217
▁thời	-6.62632
▁theo	-6.62821
▁đồng	-6.64289
▁gia	-6.64624
▁an	-6.65186
▁sinh	-6.65345
▁trường	-6.65375
▁thế	-6.67433
▁not	-6.67999
"	-6.68101
▁thực	-6.68107
▁thông	-6.68563
▁điều	-6.69382
▁have	-6.69425
▁cách	-6.69576
▁from	-6.70253
▁cơ	-6.70311
▁Nam	-6.70529
▁con	-6.71192
▁but	-6.71531
▁mới	-6.72647
▁him	-6.73097
▁khách	-6.73302
▁chúng	-6.73613
▁sau	-6.74967
▁hình	-6.75281
▁sử	-6.76602
▁Việt	-6.76624
▁cả	-6.78214
▁cấp	-6.78638
▁cùng	-6.7883
▁trình	-6.80827
▁nhưng	-6.81065
▁hành	-6.81666
▁lý	-6.82293
▁phẩm	-6.8256
▁lượng	-6.82658
▁khác	-6.82667
▁năng	-6.83113
▁viên	-6.83132
▁this	-6.83816
▁up	-6.84476
▁tin	-6.85595
▁chất	-6.86136
▁đang	-6.86145
▁out	-6.86994
▁so	-6.87193
▁they	-6.87358
▁phát	-6.87465
▁vụ	-6.87481
▁lên	-6.87796
▁cần	-6.88733
▁qua	-6.88968
▁biết	-6.8923
▁ta	-6.89339
▁đây	-6.92013
▁we	-6.92346
▁nhận	-6.92644
▁độ	-6.92976
▁nghiệp	-6.93158
▁hay	-6.93449
▁–	-6.94182
▁máy	-6.9512
▁tư	-6.95777
▁said	-6.96427
▁thiết	-6.96695
▁She	-6.97455
▁gian	-6.98019
▁vì	-6.98335
▁tâm	-6.98451
▁bộ	-6.98465
▁nào	-6.98767
▁all	-6.99124
▁were	-6.99496
▁toàn	-6.99739
▁tạo	-7.00167
▁loại	-7.00185
▁nói	-7.00312
▁bảo	-7.00415
▁kết	-7.00498
▁mặt	-7.00859
▁tự	-7.01054
▁xuất	-7.01315
▁xe	-7.01394
▁kinh	-7.0213
▁are	-7.02155
▁đối	-7.02168
▁dân	-7.02279
▁m	-7.02663
▁giúp	-7.02992
▁hoặc	-7.03411
▁bằng	-7.03452
▁trước	-7.04064
▁cầu	-7.04545
▁tốt	-7.04797
▁điểm	-7.04952
▁vị	-7.05124
▁It	-7.05563
▁tế	-7.05643
▁tác	-7.05944
▁hội	-7.06472
▁tính	-7.06965
▁hiệu	-7.07246
▁thấy	-7.08072
▁tiếp	-7.08507
▁would	-7.08918
▁đường	-7.09594
▁chức	-7.10246
▁one	-7.1052
▁thường	-7.11069
▁hệ	-7.11724
▁tình	-7.12509
▁phòng	-7.12625
▁ông	-7.13254
▁phần	-7.13327
▁nay	-7.13554
▁quả	-7.13722
▁dùng	-7.14187
▁ý	-7.15257
▁bản	-7.1533
▁A	-7.15419
▁them	-7.16556
▁nhiên	-7.16578
▁lớn	-7.16852
▁ăn	-7.16968
▁what	-7.17031
▁chủ	-7.17711
▁giới	-7.18594
▁by	-7.18627
▁or	-7.18791
▁like	-7.1889
▁tới	-7.18895
▁kế	-7.19059
▁into	-7.19405
▁can	-7.19855
▁anh	-7.20117
▁đại	-7.20708
▁back	-7.20834
▁about	-7.21076
▁thức	-7.21417
▁giải	-7.21769
▁điện	-7.22414
▁thị	-7.22467
▁dịch	-7.23171
▁pháp	-7.23611
▁trị	-7.23798
▁cảm	-7.24023
▁your	-7.24135
▁bệnh	-7.24551
▁hóa	-7.24652
▁sống	-7.24722
▁doanh	-7.24805
▁em	-7.24858
▁chọn	-7.26577
▁dự	-7.26672
▁đề	-7.27088
▁quá	-7.27272
▁đẹp	-7.27757
▁bán	-7.28053
▁hai	-7.28271
▁tăng	-7.28545
▁triển	-7.28959
▁tiền	-7.29084
▁tháng	-7.29765
▁their	-7.3008
▁trọng	-7.30604
▁yêu	-7.31342
▁vẫn	-7.32204
▁could	-7.32208
▁án	-7.32619
▁You	-7.32913
▁trang	-7.33276
▁thống	-7.33308
▁gì	-7.33324
▁vậy	-7.33397
▁Công	-7.34255
▁mang	-7.3438
▁ty	-7.34475
▁họ	-7.34506
▁tập	-7.34751
▁mua	-7.34878
▁biệt	-7.35669
▁muốn	-7.35742
▁liên	-7.36898
▁if	-7.37404
▁tài	-7.38296
▁tiêu	-7.38377
▁ảnh	-7.38966
▁there	-7.39043
▁thương	-7.39321
▁trở	-7.39483
▁tay	-7.39485
▁đều	-7.39635
▁cái	-7.39931
▁hoạt	-7.40071
▁lực	-7.40457
▁just	-7.40691
▁cuộc	-7.41715
▁trung	-7.41933
▁Quốc	-7.4195
▁time	-7.42002
▁will	-7.42312
▁lần	-7.42622
▁been	-7.42791
▁khu	-7.43856
▁nhau	-7.44086
▁hoàn	-7.44228
▁nó	-7.44326
▁tìm	-7.44727
▁trí	-7.45116
▁vấn	-7.45474
▁Trung	-7.45908
▁know	-7.45988
▁rằng	-7.46101
▁bao	-7.46351
▁đơn	-7.46408
▁quy	-7.47132
▁C	-7.47353
▁phương	-7.4796
▁Trong	-7.47983
▁bất	-7.48023
▁quốc	-7.48384
▁địa	-7.48468
▁báo	-7.48551
▁when	-7.48587
▁bên	-7.48705
▁đất	-7.49074
▁giao	-7.49112
▁sở	-7.4975
▁văn	-7.49857
▁cô	-7.50039
▁sáng	-7.50618
▁no	-7.50747
▁more	-7.50798
▁over	-7.50995
▁da	-7.51026
▁liệu	-7.51209
▁nếu	-7.51335
▁down	-7.51354
▁Hà	-7.51451
▁chuyên	-7.51508
▁ngoài	-7.51618
▁tổ	-7.51888
▁thu	-7.52255
▁tham	-7.52368
▁tích	-7.52478
▁thân	-7.52816
▁thêm	-7.52925
▁who	-7.53416
▁ứng	-7.54107
▁tiếng	-7.5428
▁bài	-7.55133
▁chế	-7.55302
▁d	-7.55562
▁đổi	-7.56023
▁dẫn	-7.56073
▁chưa	-7.56175
▁đặc	-7.5639
▁giờ	-7.56824
▁then	-7.5702
▁rồi	-7.57738
▁chuyển	-7.58156
▁thi	-7.58203
▁trẻ	-7.5824
▁vừa	-7.58825
▁dựng	-7.59545
▁mọi	-7.5965
▁sức	-7.59737
▁xã	-7.59839
▁thứ	-7.60068
▁thích	-7.6088
▁luôn	-7.61113
▁quyết	-7.61481
▁giảm	-7.61611
▁chi	-7.6195
▁nơi	-7.6212
▁We	-7.62235
▁nghệ	-7.63151
▁màu	-7.63424
▁cung	-7.63871
▁xem	-7.63952
▁đặt	-7.64001
▁hướng	-7.64483
▁get	-7.65054
▁xây	-7.65069
▁tuổi	-7.65084
▁mạnh	-7.65484
▁nhỏ	-7.65799
▁sao	-7.65968
▁phí	-7.66357
▁nội	-7.66542
▁Các	-7.66906
▁ngay	-7.66923
▁vật	-7.67171
▁kỳ	-7.67345
▁đạo	-7.6769
▁lịch	-7.68337
▁phục	-7.68632
▁quyền	-7.69108
▁mắt	-7.69458
▁tiết	-7.69513
▁tỉnh	-7.6959
▁thay	-7.69593
▁vực	-7.69985
▁dễ	-7.70442
▁thủ	-7.71212
▁Bộ	-7.71501
▁tục	-7.72066
▁Nếu	-7.72242
▁thuật	-7.72423
▁biến	-7.7243
▁đình	-7.7279
▁khó	-7.73191
▁phố	-7.73696
▁bình	-7.73703
▁phân	-7.73767
▁nhanh	-7.73868
▁thuộc	-7.74105
▁hết	-7.74179
▁lập	-7.74389
▁re	-7.7441
▁lúc	-7.74705
▁chứng	-7.74782
▁Nội	-7.75009
▁gây	-7.75102
▁see	-7.75273
▁bắt	-7.75387
▁diện	-7.75773
▁gần	-7.7646
▁đánh	-7.76649
▁lợi	-7.76679
▁giáo	-7.76729
▁phụ	-7.76886
▁đủ	-7.76898
▁mỗi	-7.77223
▁thanh	-7.77345
▁kiến	-7.77576
▁sĩ	-7.77615
▁du	-7.78084
▁đưa	-7.78316
▁kiện	-7.78362
▁now	-7.7838
▁trợ	-7.78548
▁Mỹ	-7.7859
▁hộ	-7.78861
▁cá	-7.79031
▁bàn	-7.79168
▁nguyên	-7.79394
▁don	-7.79645
▁Anh	-7.79707
▁lời	-7.79869
▁chiếc	-7.79952
▁vô	-7.80078
▁some	-7.80113
▁sách	-7.80282
ing	-7.80422
▁từng	-7.80452
▁Nguyễn	-7.80493
▁tượng	-7.80772
▁only	-7.80784
▁tiên	-7.81166
▁way	-7.81225
▁And	-7.81288
▁our	-7.81308
▁tử	-7.81415
▁nghiệm	-7.81466
▁us	-7.81609
▁They	-7.81627
▁căn	-7.81705
▁before	-7.81834
▁tinh	-7.81891
▁lòng	-7.81996
▁cửa	-7.82038
▁truyền	-7.82272
▁other	-7.82394
▁khiến	-7.8275
▁thật	-7.82831
▁khoảng	-7.82899
▁didn	-7.83033
▁But	-7.83385
▁bởi	-7.83738
▁nhập	-7.83781
▁nữ	-7.83865
▁vệ	-7.83904
▁mức	-7.83933
▁chơi	-7.8408
▁nhìn	-7.84271
▁nữa	-7.84546
▁did	-7.84915
▁than	-7.85649
▁mẹ	-7.85859
▁chung	-7.87249
▁around	-7.87259
▁quản	-7.87489
▁cứu	-7.87706
▁tất	-7.8805
▁dài	-7.88298
▁Với	-7.88669
▁What	-7.89282
▁đời	-7.89413
▁through	-7.89463
▁chiến	-7.89477
▁giữa	-7.89611
▁tên	-7.9013
▁triệu	-7.90163
▁vi	-7.90206
▁hiểu	-7.90594
▁eyes	-7.90635
▁sắc	-7.91333
▁dưới	-7.91361
▁diễn	-7.91646
▁phong	-7.91835
▁Một	-7.91893
▁tiến	-7.91896
▁đội	-7.92715
▁đồ	-7.92773
▁chân	-7.92999
▁bỏ	-7.93029
▁here	-7.936
▁khả	-7.93783
▁nhiệm	-7.93861
▁ban	-7.94316
▁chuẩn	-7.94402
▁off	-7.94797
▁Bạn	-7.94799
▁hữu	-7.94846
▁go	-7.94941
▁gọi	-7.9507
▁cảnh	-7.95204
▁chí	-7.95249
▁tra	-7.95287
▁áp	-7.95432
▁quý	-7.95463
▁man	-7.9558
▁which	-7.96021
▁đảm	-7.96082
▁mục	-7.96136
▁B	-7.96678
▁xác	-7.96945
▁khai	-7.96979
▁trực	-7.97125
▁kiểm	-7.97318
▁nổi	-7.97528
ed	-7.97672
▁going	-7.97673
▁how	-7.97691
▁looked	-7.97801
▁lựa	-7.98125
▁Đại	-7.98166
▁cổ	-7.98199
▁khí	-7.98461
▁right	-7.98487
▁đầy	-7.9858
▁chống	-7.98721
▁sát	-7.98849
▁càng	-7.98898
▁Khi	-7.99008
▁Theo	-7.99085
▁has	-7.99334
▁Tuy	-7.99547
▁Sau	-7.99562
▁kỹ	-7.99917
▁hoa	-7.99926
▁even	-8.0056
▁Bình	-8.00854
▁tương	-8.01025
▁tiện	-8.01407
▁ấy	-8.01496
▁cây	-8.01704
▁hỏi	-8.01709
▁Văn	-8.01818
▁ai	-8.01936
▁lưu	-8.02764
▁hạn	-8.02787
▁people	-8.02957
▁hưởng	-8.03064
▁tỷ	-8.03182
▁chuyện	-8.03219
n	-8.03433
▁đúng	-8.03522
▁Có	-8.03584
▁gặp	-8.03593
▁think	-8.03685
▁head	-8.03914
▁câu	-8.03953
▁mất	-8.04039
▁two	-8.04045
▁lấy	-8.04081
▁nghĩa	-8.04268
▁ký	-8.04283
▁ll	-8.04288
▁mở	-8.04311
▁yếu	-8.04525
▁hồ	-8.04712
▁mạng	-8.05139
▁đa	-8.05184
▁phù	-8.05452
▁đạt	-8.05852
▁sang	-8.05981
▁thư	-8.06442
▁viết	-8.06501
▁thuốc	-8.06785
▁tranh	-8.06879
▁tối	-8.06959
▁bé	-8.06962
▁cáo	-8.07071
▁rõ	-8.07471
▁gồm	-8.08044
▁đoàn	-8.08157
▁ít	-8.08446
▁bà	-8.08831
▁Những	-8.08936
▁chia	-8.09239
▁away	-8.09374
▁want	-8.09512
▁giữ	-8.09577
▁mẫu	-8.09665
▁still	-8.09748
▁any	-8.0995
▁trưởng	-8.09951
▁too	-8.1004
▁cư	-8.10078
▁tưởng	-8.10287
▁Nhà	-8.10482
▁cạnh	-8.10565
▁again	-8.10736
▁bố	-8.10786
▁âm	-8.10997
▁cực	-8.11108
▁minh	-8.1118
▁cứ	-8.11348
▁Minh	-8.11469
▁chị	-8.11591
▁rộng	-8.11665
▁hand	-8.11779
▁dục	-8.11993
▁In	-8.12081
▁S	-8.12209
▁đăng	-8.12399
▁hãy	-8.12429
▁Không	-8.12464
▁luật	-8.12489
▁nguồn	-8.12511
▁dung	-8.13078
▁ngành	-8.1321
▁danh	-8.13662
▁may	-8.13834
▁An	-8.13908
▁asked	-8.13989
▁chương	-8.14134
▁vui	-8.14637
▁giả	-8.15127
▁vùng	-8.15196
▁long	-8.15741
▁made	-8.15771
▁khá	-8.15805
▁Đức	-8.15823
▁That	-8.15833
▁face	-8.15865
▁tổng	-8.16135
▁đấu	-8.16235
▁"	-8.16449
▁something	-8.16698
▁vận	-8.16773
▁thần	-8.16834
▁khỏe	-8.16976
▁nghe	-8.1705
▁độc	-8.17056
▁This	-8.17063
▁biểu	-8.17358
▁dưỡng	-8.17406
▁hỗ	-8.17509
▁much	-8.17603
▁bóng	-8.17616
▁first	-8.17768
▁nhu	-8.17773
▁Chính	-8.17823
▁Hội	-8.17851
▁good	-8.1805
▁tín	-8.18223
▁trả	-8.18424
▁where	-8.18665
▁ve	-8.19149
▁toán	-8.19182
▁thought	-8.19583
▁khoa	-8.19881
▁dù	-8.19887
▁riêng	-8.20107
▁never	-8.20225
▁life	-8.20383
▁make	-8.20497
▁nghĩ	-8.20534
▁say	-8.20648
▁phía	-8.20733
▁chịu	-8.20981
▁dòng	-8.21846
▁xuống	-8.22042
▁di	-8.22124
▁lớp	-8.22229
▁hòa	-8.22566
▁môi	-8.22777
▁Do	-8.22879
▁bay	-8.22997
▁God	-8.23111
▁thoại	-8.23595
▁ba	-8.23737
▁Nhưng	-8.23914
▁No	-8.24535
▁trạng	-8.24556
▁xử	-8.24741
▁There	-8.25216
▁after	-8.25869
▁Đây	-8.25902
▁cố	-8.25956
▁Thanh	-8.26292
▁cụ	-8.26544
▁chắc	-8.26699
▁Người	-8.27031
▁dành	-8.27051
▁kể	-8.27069
▁lâu	-8.27195
▁Tôi	-8.27214
▁cuối	-8.27462
▁hoạch	-8.27623
d	-8.27651
▁phạm	-8.27779
▁đáng	-8.27786
▁So	-8.27841
▁got	-8.27989
▁nâng	-8.2822
▁little	-8.28426
▁phủ	-8.28439
▁dạng	-8.28727
▁biển	-8.29271
ly	-8.29434
▁viện	-8.29628
▁take	-8.29779
▁door	-8.29906
▁nam	-8.30175
▁If	-8.30416
▁áo	-8.30969
▁xin	-8.31206
▁y	-8.31621
▁because	-8.31832
▁quân	-8.32005
▁ưu	-8.32161
▁đau	-8.32182
▁khẩu	-8.32283
▁xa	-8.32318
▁ích	-8.32453
▁uống	-8.32628
▁room	-8.32644
▁ca	-8.32771
▁nghị	-8.32813
▁rẻ	-8.3292
▁day	-8.33154
▁\\	-8.33251
▁Điều	-8.33321
t	-8.33349
▁nằm	-8.33589
▁Ngoài	-8.33603
▁đá	-8.3363
▁T	-8.33789
▁need	-8.33871
▁very	-8.33959
▁tố	-8.34074
▁look	-8.34541
▁vàng	-8.34558
▁thiện	-8.34799
▁As	-8.34947
▁huyện	-8.35073
▁đoạn	-8.35189
▁thất	-8.35206
▁come	-8.3555
y	-8.35618
▁Để	-8.35666
▁chữa	-8.35944
▁Đông	-8.36035
▁vốn	-8.36285
▁đâu	-8.36326
▁His	-8.36636
▁Thành	-8.36861
▁TP	-8.37356
▁Nhật	-8.37417
▁tải	-8.37521
▁kích	-8.37568
▁phép	-8.3765
▁D	-8.37722
▁nhiệt	-8.37933
▁being	-8.39123
▁took	-8.39441
▁trận	-8.3949
▁món	-8.39622
▁knew	-8.39682
▁Bắc	-8.39785
▁its	-8.39913
▁Hồ	-8.40293
▁giống	-8.40408
▁môn	-8.40792
▁trò	-8.40971
▁hút	-8.41225
▁phim	-8.4142
▁Từ	-8.41467
▁Vì	-8.41648
▁tuyệt	-8.41913
▁My	-8.42076
▁gái	-8.42089
▁sơ	-8.42104
▁giác	-8.42127
▁bước	-8.42275
▁chú	-8.4232
▁thuê	-8.42324
▁đàn	-8.42521
▁well	-8.42656
▁vòng	-8.42731
▁sẻ	-8.4324
▁thiếu	-8.43408
▁đôi	-8.43543
▁few	-8.4383
▁trắng	-8.443
▁xanh	-8.44363
▁cộng	-8.44427
▁nền	-8.44581
▁came	-8.45359
▁nghiên	-8.45464
▁đóng	-8.45617
▁turned	-8.45959
▁hồi	-8.46029
▁tức	-8.46133
▁Tổng	-8.46244
a	-8.46269
▁those	-8.46456
▁trái	-8.46531
▁nhé	-8.46538
▁sân	-8.46855
▁left	-8.46889
▁đáp	-8.46893
▁while	-8.47131
▁lao	-8.47137
▁tầng	-8.47547
▁bác	-8.47547
▁Đồng	-8.47558
▁am	-8.47801
▁dàng	-8.47825
▁phối	-8.47883
▁đông	-8.48
▁Chúng	-8.48178
▁hãng	-8.48247
▁trời	-8.48273
▁khoản	-8.48299
▁giản	-8.48503
▁Chủ	-8.48607
▁ngủ	-8.48633
▁ngoại	-8.487
▁Trường	-8.49032
▁phá	-8.49075
▁luận	-8.49277
▁should	-8.49349
▁lạnh	-8.49419
▁hôm	-8.49548
▁lệ	-8.49633
▁vài	-8.49703
▁khỏi	-8.4995
▁nàng	-8.50003
▁Tây	-8.50047
▁mô	-8.50154
▁Ban	-8.50408
▁felt	-8.50519
i	-8.50524
▁phút	-8.50565
▁Long	-8.50839
▁vẻ	-8.50888
▁another	-8.51006
▁h	-8.5132
▁suất	-8.51594
▁nhằm	-8.51678
▁nhớ	-8.52086
▁tuần	-8.52298
▁chạy	-8.52329
▁kiếm	-8.5236
▁khóa	-8.52449
▁gửi	-8.52656
▁own	-8.52696
▁lo	-8.52723
▁sâu	-8.52988
▁kính	-8.53016
▁really	-8.53067
▁thuận	-8.53098
▁let	-8.5325
▁When	-8.53252
▁sửa	-8.53259
▁Hoàng	-8.53262
▁đọc	-8.53428
er	-8.53523
▁mùa	-8.5357
▁dầu	-8.53617
▁chết	-8.53684
▁things	-8.53767
▁M	-8.53815
▁mềm	-8.53894
▁góp	-8.54037
▁lãnh	-8.54131
▁mại	-8.54172
▁\	-8.54249
▁find	-8.54287
▁linh	-8.54332
▁also	-8.54576
m	-8.54669
▁đứng	-8.54766
e	-8.54939
▁com	-8.54963
▁đem	-8.55017
▁Hải	-8.55069
▁bổ	-8.55558
▁chiều	-8.55673
▁giấy	-8.55811
▁ghi	-8.56175
▁xét	-8.56209
▁quận	-8.56214
▁nhẹ	-8.5633
▁Sơn	-8.56542
▁cân	-8.56617
▁nhóm	-8.56761
▁Ngày	-8.56884
▁nhạc	-8.56941
▁vọng	-8.56973
▁khăn	-8.56978
▁these	-8.572
▁Dương	-8.57279
▁Hoa	-8.57362
▁miễn	-8.57379
▁Thái	-8.57395
▁Và	-8.57456
▁đào	-8.57473
▁trách	-8.5753
▁sạch	-8.57851
▁cải	-8.57987
▁told	-8.58198
▁mong	-8.58346
▁cập	-8.58398
▁Ông	-8.58443
▁sư	-8.58469
▁chẳng	-8.58628
▁chồng	-8.58725
▁thủy	-8.58842
▁Thông	-8.59025
▁tránh	-8.59074
▁lĩnh	-8.59263
▁màn	-8.59349
▁đô	-8.59379
▁Chúa	-8.59408
▁hậu	-8.5941
▁went	-8.59535
▁wasn	-8.59849
▁thiên	-8.59885
▁chỗ	-8.60033
▁tuyến	-8.60087
▁hấp	-8.60785
▁tịch	-8.61066
▁lễ	-8.61103
▁thấp	-8.61252
▁Phật	-8.61652
▁mỹ	-8.61878
▁tuyển	-8.62057
▁work	-8.62169
▁last	-8.6244
▁chỉnh	-8.62638
▁ánh	-8.62641
▁place	-8.62913
▁nóng	-8.63061
▁tận	-8.63073
▁chóng	-8.63337
▁side	-8.63361
▁tell	-8.63446
▁thẩm	-8.63751
▁many	-8.6383
▁mái	-8.63967
▁most	-8.63986
▁nghề	-8.6404
▁kéo	-8.64105
▁new	-8.64177
▁máu	-8.64215
▁Bản	-8.64254
▁chút	-8.64311
▁V	-8.64848
▁Hiện	-8.64921
▁nghỉ	-8.65302
▁against	-8.65375
▁sure	-8.65508
▁nguy	-8.65639
▁dây	-8.65677
▁body	-8.65766
▁phản	-8.65801
▁years	-8.65805
▁world	-8.65871
▁mind	-8.66066
▁nối	-8.66069
▁duy	-8.6647
▁P	-8.66526
▁men	-8.66548
▁ô	-8.66592
▁game	-8.6692
▁Pháp	-8.66932
▁each	-8.67037
▁hơi	-8.67102
▁love	-8.67165
▁hại	-8.67298
▁ngân	-8.67383
▁vợ	-8.67398
▁hiểm	-8.6767
▁might	-8.68017
▁hands	-8.68268
▁found	-8.68466
▁night	-8.68492
▁same	-8.68604
▁put	-8.68609
▁khám	-8.68642
▁wanted	-8.6867
▁Thiên	-8.68798
▁next	-8.68804
▁đảo	-8.68838
▁G	-8.69183
▁xảy	-8.69402
▁thắng	-8.69461
▁đỏ	-8.69468
▁hạ	-8.69546
▁quanh	-8.69858
▁tai	-8.69883
▁khảo	-8.70191
▁xuyên	-8.70258
▁thing	-8.70321
▁must	-8.70379
▁x	-8.70665
▁thái	-8.70843
▁chắn	-8.71006
▁trải	-8.71067
▁both	-8.71089
▁chăm	-8.71094
▁old	-8.71205
▁Then	-8.71412
▁help	-8.7144
▁Trần	-8.71587
▁home	-8.71772
▁anything	-8.71819
▁behind	-8.72071
▁saw	-8.72105
▁Thị	-8.72161
▁tướng	-8.72462
▁kiểu	-8.72556
▁buổi	-8.72607
▁Thủ	-8.72633
▁enough	-8.7267
▁Phú	-8.72738
▁uy	-8.72829
▁cường	-8.73191
▁đêm	-8.73196
▁niệm	-8.73344
▁Tại	-8.73685
▁dấu	-8.73756
▁răng	-8.73779
▁khởi	-8.73827
▁mắc	-8.73941
▁kia	-8.74014
▁chấp	-8.74122
▁feel	-8.74297
▁H	-8.74391
▁xúc	-8.74537
▁K	-8.74627
▁How	-8.74837
▁U	-8.75008
▁always	-8.75095
▁bếp	-8.75135
▁thú	-8.75182
▁hát	-8.75413
o	-8.75482
▁until	-8.75632
▁trì	-8.75892
▁ngôi	-8.75899
▁lạc	-8.76079
▁vai	-8.76175
▁hắn	-8.76234
▁Liên	-8.76239
▁đèn	-8.7633
▁Thế	-8.76476
▁mật	-8.7662
▁vượt	-8.76739
▁kỷ	-8.77071
▁Hãy	-8.77113
▁nhật	-8.77293
▁siêu	-8.77531
▁Y	-8.77661
▁voice	-8.777
▁chứa	-8.77743
▁thôi	-8.77924
▁why	-8.78006
▁mặc	-8.78112
▁phiên	-8.78584
▁tiểu	-8.7867
▁sớm	-8.78709
▁thử	-8.7909
▁ngồi	-8.79101
▁Lê	-8.79176
▁without	-8.79278
▁nông	-8.79339
▁quần	-8.79484
▁Chí	-8.79507
▁Hòa	-8.79522
▁looking	-8.79532
▁đẩy	-8.79849
▁every	-8.79929
▁khắc	-8.79935
▁suy	-8.80086
▁nothing	-8.80167
▁such	-8.80176
▁lá	-8.80199
▁miền	-8.80257
▁thưởng	-8.80417
▁Hàn	-8.80489
▁though	-8.8059
▁tốc	-8.80696
▁chữ	-8.80813
▁ấn	-8.81146
▁bánh	-8.81228
▁dạy	-8.81274
▁thảo	-8.81281
▁L	-8.81489
▁Châu	-8.81501
▁couldn	-8.81538
▁tóc	-8.82048
▁gỗ	-8.82588
▁trai	-8.82747
▁Máy	-8.82759
▁liền	-8.83088
▁cũ	-8.83104
▁nặng	-8.83171
p	-8.83217
▁E	-8.8331
▁lộ	-8.83361
▁thuế	-8.83572
▁phổ	-8.83578
▁Đảng	-8.83649
▁nhờ	-8.8369
▁USD	-8.84089
▁quen	-8.84573
▁Her	-8.84657
▁ever	-8.84839
▁front	-8.85336
▁Chỉ	-8.85431
▁Việc	-8.85594
▁nuôi	-8.85654
▁small	-8.85792
▁tô	-8.85837
▁v	-8.85946
▁himself	-8.86063
▁mã	-8.86125
▁house	-8.86464
▁sai	-8.8657
▁cấu	-8.8672
▁Phòng	-8.8675
▁tấn	-8.86944
▁giai	-8.87595
▁cán	-8.87718
▁three	-8.88037
▁Nguyên	-8.88165
▁sung	-8.88405
▁ngon	-8.88512
▁Đà	-8.8863
▁đích	-8.88701
▁ngăn	-8.88762
▁cười	-8.88827
▁better	-8.88842
▁g	-8.8891
▁Tân	-8.88992
▁quay	-8.89197
▁quán	-8.8929
▁niên	-8.90003
▁hương	-8.90057
▁phê	-8.90225
▁đen	-8.90268
▁between	-8.90533
▁thiệu	-8.90576
▁Quảng	-8.90692
▁luyện	-8.90692
▁Sở	-8.90831
▁sẵn	-8.90836
▁sóc	-8.91004
▁giám	-8.911
▁dáng	-8.91251
▁sữa	-8.91257
▁moment	-8.91288
▁thịt	-8.91515
▁under	-8.91595
▁Bên	-8.91919
▁thao	-8.91996
▁woman	-8.92078
▁UBND	-8.92114
▁bật	-8.92163
▁trúc	-8.92209
▁Cho	-8.92217
▁started	-8.9237
▁N	-8.92409
▁Trang	-8.92536
▁lẽ	-8.92727
▁give	-8.92876
▁tặng	-8.92906
▁vn	-8.92963
▁hài	-8.93089
▁tội	-8.93244
▁ổn	-8.93253
▁Giang	-8.93429
▁HCM	-8.93489
▁open	-8.93793
▁thúc	-8.9401
▁cha	-8.94017
▁lỗi	-8.9432
▁thăm	-8.9451
▁Quý	-8.94703
▁Giáo	-8.94715
▁Bảo	-8.94845
▁lắp	-8.94856
▁xếp	-8.94879
c	-8.95003
▁thai	-8.95044
▁light	-8.95129
▁keep	-8.95212
▁tươi	-8.95278
▁cắt	-8.9536
▁sợ	-8.95383
▁nghi	-8.95527
▁Xuân	-8.95631
▁Yes	-8.95687
▁bảng	-8.95997
▁nạn	-8.96052
▁Ngọc	-8.96107
▁Trước	-8.96213
▁end	-8.96231
▁tùy	-8.96258
▁Như	-8.96546
▁stood	-8.96559
▁quảng	-8.96653
▁kim	-8.96722
▁đốc	-8.96772
▁chứ	-8.96793
▁tầm	-8.96846
▁bền	-8.97292
▁website	-8.97644
▁viêm	-8.97654
▁heard	-8.97673
▁ngữ	-8.97724
▁Lan	-8.97774
▁mấy	-8.9786
▁c	-8.98037
▁seemed	-8.98553
▁Kim	-8.98695
▁Well	-8.98944
▁Năm	-8.9902
▁mát	-8.991
▁Kinh	-8.99149
▁inside	-8.99261
▁once	-8.99354
▁gốc	-8.99417
▁suốt	-8.99634
▁mạch	-8.99707
▁sông	-8.99846
▁ngờ	-8.99956
▁hạnh	-9.00204
▁trao	-9.00223
▁ngũ	-9.00262
▁Ba	-9.00359
▁thẳng	-9.00402
▁bày	-9.00444
▁tộc	-9.00504
▁dần	-9.00537
▁At	-9.00616
▁Why	-9.00629
▁Giá	-9.00861
▁Đối	-9.01052
▁sat	-9.01096
▁kiệm	-9.0115
▁called	-9.01153
▁khối	-9.01233
r	-9.01281
▁sim	-9.01282
▁mối	-9.01399
▁yên	-9.0144
▁cánh	-9.0147
▁tim	-9.01511
▁cầm	-9.01518
▁chiếu	-9.01622
▁Quận	-9.01649
▁châu	-9.01882
▁ủy	-9.02042
▁phúc	-9.02192
▁coi	-9.02279
▁Gia	-9.0228
▁father	-9.02326
▁trying	-9.02467
▁All	-9.02519
▁walked	-9.03011
▁water	-9.03092
▁set	-9.03212
▁already	-9.0327
▁someone	-9.03749
▁Oh	-9.03763
▁dữ	-9.03818
▁began	-9.03841
▁đón	-9.03911
▁huyết	-9.03921
▁Á	-9.03931
▁hard	-9.04194
▁far	-9.04334
▁Phương	-9.0439
▁bức	-9.04518
▁lạ	-9.0482
▁soát	-9.04913
▁name	-9.05073
▁gave	-9.05182
▁hạt	-9.05188
▁sạn	-9.05391
▁Now	-9.05536
▁Kỳ	-9.05616
▁khô	-9.0562
▁great	-9.05854
▁cam	-9.05944
▁hồng	-9.06031
▁nét	-9.06116
▁tàu	-9.06237
▁tuy	-9.06291
▁Phó	-9.06422
▁For	-9.06586
▁nghiêm	-9.06646
▁web	-9.06685
▁nhiễm	-9.07176
▁X	-9.07194
▁đẳng	-9.07273
▁everything	-9.07344
▁Đặc	-9.07424
▁mother	-9.07517
▁part	-9.07581
▁across	-9.07602
▁sắp	-9.07609
▁One	-9.07682
▁car	-9.07745
▁gắn	-9.07937
▁miệng	-9.07973
▁gió	-9.08028
▁F	-9.08085
▁phận	-9.08111
▁tôn	-9.08205
▁hair	-9.08267
▁Dự	-9.08317
▁used	-9.08475
▁cà	-9.08484
▁cuốn	-9.08492
▁done	-9.08502
▁R	-9.0851
▁Nhân	-9.0855
▁lai	-9.08725
▁tu	-9.0886
▁thơ	-9.08873
▁vời	-9.0896
▁bào	-9.08972
▁chờ	-9.09111
▁Not	-9.09159
▁doing	-9.09332
▁dương	-9.09388
▁Đó	-9.09558
▁tắc	-9.09732
▁kém	-9.09889
▁heart	-9.09962
▁vững	-9.09989
▁Ở	-9.10149
▁ngắn	-9.10196
▁lương	-9.10576
▁Luật	-9.1075
▁túi	-9.10899
▁girl	-9.1096
▁thước	-9.1105
▁Ninh	-9.1118
▁top	-9.11244
▁else	-9.11292
▁tried	-9.1135
▁best	-9.1151
▁words	-9.11556
▁After	-9.11582
▁khổ	-9.11613
▁tòa	-9.11639
▁says	-9.11832
▁Nga	-9.11915
▁cậu	-9.12112
▁bầu	-9.12122
▁chiếm	-9.12136
▁kẻ	-9.12205
▁xong	-9.12263
▁mãi	-9.12501
▁kèm	-9.12506
▁cử	-9.12539
▁bí	-9.12539
▁Lâm	-9.12606
▁smile	-9.12707
▁Sự	-9.12735
▁chuyến	-9.1282
▁since	-9.12895
▁trồng	-9.13016
▁seen	-9.13045
▁together	-9.13154
▁believe	-9.13196
▁Thiết	-9.13326
▁ơn	-9.13405
▁hạng	-9.13477
▁thoải	-9.13539
▁almost	-9.13643
▁Chi	-9.13699
▁Con	-9.13747
▁pulled	-9.13936
g	-9.14094
▁song	-9.14387
▁xung	-9.1441
▁ấm	-9.14499
▁làn	-9.14603
▁tái	-9.14633
▁hôn	-9.14769
▁rửa	-9.14828
▁mean	-9.14828
▁feet	-9.14851
▁khuyến	-9.14918
▁family	-9.15
▁Cách	-9.15024
▁núi	-9.15061
ng	-9.15132
▁cứng	-9.15215
▁niềm	-9.15226
▁huy	-9.15237
▁Vũ	-9.15274
▁ghế	-9.15443
▁lành	-9.16132
▁air	-9.16331
▁black	-9.16396
▁Thời	-9.16399
▁Âu	-9.16555
▁myself	-9.16567
▁gói	-9.16704
▁Sản	-9.16758
▁thừa	-9.16983
▁bed	-9.16999
▁lắng	-9.17047
▁ma	-9.17266
▁Còn	-9.17343
▁thầy	-9.17393
▁full	-9.17427
▁Quang	-9.1744
▁thuyết	-9.17603
▁smiled	-9.17635
▁thụ	-9.17694
▁thoát	-9.17721
▁Linh	-9.17724
▁tấm	-9.1774
▁ràng	-9.17969
▁thẻ	-9.18089
▁đừng	-9.18095
▁đáo	-9.18161
▁biên	-9.18238
▁call	-9.18256
▁yet	-9.18633
▁vé	-9.18666
▁ẩm	-9.18678
▁hầu	-9.18686
▁Bà	-9.18702
▁To	-9.18819
▁cháy	-9.18921
▁giảng	-9.19046
▁use	-9.19053
▁ước	-9.19205
▁b	-9.19227
▁lửa	-9.19329
▁Hồng	-9.19334
▁nắm	-9.19362
▁does	-9.19569
▁Trên	-9.19897
▁Tài	-9.19978
▁lái	-9.2008
▁hear	-9.20123
▁leave	-9.20179
▁đức	-9.20217
▁thí	-9.20286
▁e	-9.20696
▁mưa	-9.20852
▁floor	-9.20873
▁Cao	-9.20881
▁La	-9.20884
▁course	-9.20951
▁Hai	-9.2127
▁days	-9.21417
▁person	-9.21524
▁Bài	-9.2155
▁held	-9.21603
▁Phong	-9.21644
▁sàn	-9.21696
u	-9.2185
▁W	-9.21895
▁xấu	-9.22006
▁tuyên	-9.22036
▁Vậy	-9.22197
▁thậm	-9.22289
▁Học	-9.22361
▁arms	-9.22573
h	-9.22585
▁Lý	-9.22716
▁pha	-9.22738
▁nhắc	-9.2276
▁Đến	-9.2279
▁later	-9.22809
▁gà	-9.22824
▁quà	-9.22834
▁Tập	-9.22897
▁lot	-9.23209
▁bit	-9.23304
▁Phát	-9.23314
es	-9.23403
▁along	-9.23571
▁Cô	-9.23586
▁cháu	-9.23648
▁O	-9.23836
▁lắm	-9.23843
▁buộc	-9.23996
▁rượu	-9.24006
▁họa	-9.24082
▁dựa	-9.24086
▁bạc	-9.24162
▁Khu	-9.24228
▁dụ	-9.243
▁bậc	-9.24352
▁Tổ	-9.24357
▁big	-9.24504
▁Nhiều	-9.2459
▁New	-9.24597
▁cận	-9.2474
▁mơ	-9.24756
▁second	-9.24811
▁able	-9.2486
▁họp	-9.24949
▁đổ	-9.25256
▁khẳng	-9.25273
▁coming	-9.25299
▁đột	-9.25446
▁Du	-9.25476
▁mẽ	-9.25535
▁ngươi	-9.25583
▁nắng	-9.25614
▁getting	-9.25698
▁ninh	-9.25788
▁tường	-9.25877
▁dark	-9.25935
▁thận	-9.26103
▁giàu	-9.26219
▁others	-9.26329
▁mê	-9.26386
▁least	-9.26536
▁tồn	-9.26618
▁đấy	-9.26634
▁dày	-9.26654
▁Điện	-9.26799
▁tủ	-9.27003
▁truy	-9.27011
▁vũ	-9.27163
▁stop	-9.27281
▁Nẵng	-9.27283
▁lược	-9.27283
▁trừ	-9.27283
▁close	-9.27326
▁talk	-9.27531
▁toward	-9.27729
▁Phạm	-9.27734
▁table	-9.27752
▁vay	-9.27796
▁mũi	-9.27797
▁sóng	-9.27857
▁Đoàn	-9.27932
▁nhấn	-9.2802
▁mùi	-9.28066
▁kind	-9.2851
▁soon	-9.28566
▁khúc	-9.28745
▁nodded	-9.28916
▁đoán	-9.28961
▁Ủy	-9.29008
▁ương	-9.29161
▁Yên	-9.2919
▁trùng	-9.29228
▁thỏa	-9.29433
▁làng	-9.29462
▁herself	-9.29526
▁Là	-9.29531
▁rau	-9.29596
▁nguyện	-9.29649
▁liệt	-9.29655
▁non	-9.29704
▁phóng	-9.29981
▁Thực	-9.30039
▁u	-9.30109
▁xu	-9.30261
▁p	-9.30271
▁tờ	-9.30279
▁hảo	-9.30319
▁Về	-9.30434
▁biện	-9.3045
▁đương	-9.30516
▁tắm	-9.30593
S	-9.30749
▁sơn	-9.30791
▁Thương	-9.31053
▁km	-9.31157
▁ung	-9.31161
\	-9.31275
▁different	-9.31354
▁human	-9.3137
▁mouth	-9.31428
▁Don	-9.31429
▁run	-9.31685
▁book	-9.31702
▁kịp	-9.31721
▁needed	-9.31827
▁nấu	-9.3191
▁Nghị	-9.31944
▁quickly	-9.3196
▁ground	-9.31999
▁number	-9.32021
▁chụp	-9.32078
▁khiển	-9.32108
▁lông	-9.32294
▁i	-9.32417
▁past	-9.32419
▁Giám	-9.3243
▁nhiêu	-9.32467
▁góc	-9.3265
▁rút	-9.32696
▁khắp	-9.32854
▁kê	-9.33076
▁phiếu	-9.33098
▁point	-9.33118
▁Mr	-9.33219
▁đ	-9.33245
▁morning	-9.33272
▁towards	-9.33272
▁sổ	-9.33391
▁hoàng	-9.33461
▁wouldn	-9.33495
▁Sài	-9.3355
▁trưng	-9.33565
▁happened	-9.33624
▁ly	-9.3364
▁Tư	-9.33721
▁ngại	-9.33789
▁blood	-9.33993
▁dịp	-9.34222
▁trụ	-9.34249
▁gọn	-9.34251
▁tỏ	-9.3442
▁n	-9.34446
▁lọc	-9.346
▁high	-9.34636
▁rừng	-9.34656
▁young	-9.34864
l	-9.34888
▁ask	-9.34975
▁stopped	-9.35171
▁Bệnh	-9.35271
▁making	-9.35291
▁mời	-9.35586
▁white	-9.35696
▁arm	-9.35728
▁whole	-9.35732
▁dead	-9.35732
▁la	-9.35754
▁khuôn	-9.35771
▁thác	-9.35843
▁Tất	-9.3593
▁rest	-9.36037
▁chặt	-9.36044
▁Được	-9.36055
▁Em	-9.36197
▁đỡ	-9.36367
▁understand	-9.3637
▁large	-9.36392
▁bụi	-9.36447
▁Cơ	-9.36542
▁Nó	-9.36624
▁Just	-9.36817
▁phi	-9.36831
▁sàng	-9.37005
▁hộp	-9.37009
▁sứ	-9.37082
▁dõi	-9.37152
▁having	-9.37289
▁won	-9.37296
▁gắng	-9.373
▁Mỗi	-9.3733
▁cục	-9.37346
▁idea	-9.37355
▁vết	-9.37399
▁times	-9.37407
▁tạp	-9.37441
▁lưng	-9.37624
▁Tin	-9.37702
▁k	-9.37757
▁co	-9.37769
▁Đầu	-9.37913
▁gone	-9.37951
▁lẫn	-9.37966
▁son	-9.38108
▁gấp	-9.38142
▁trăm	-9.38182
▁ống	-9.38215
▁Họ	-9.38347
▁xứ	-9.38362
▁Xe	-9.38442
▁With	-9.38727
▁power	-9.38941
▁bột	-9.39007
▁rơi	-9.39052
▁mụn	-9.39175
▁Cần	-9.39227
▁Chương	-9.39282
▁quên	-9.39296
▁half	-9.3949
▁ngược	-9.39503
▁friend	-9.39585
▁Dịch	-9.39634
▁đãi	-9.39675
▁Khoa	-9.39686
▁hẳn	-9.39695
▁nhựa	-9.39755
▁Nha	-9.39768
▁bè	-9.39802
▁đảng	-9.39818
▁hải	-9.39873
▁show	-9.39933
▁Đường	-9.40263
▁Thánh	-9.40269
▁chàng	-9.40289
▁xương	-9.40317
▁doesn	-9.40361
in	-9.40429
▁real	-9.40454
▁Cộng	-9.40491
▁iPhone	-9.40502
▁kháng	-9.40503
▁tỉ	-9.40569
▁đứa	-9.40625
▁anyone	-9.4073
▁Mai	-9.40774
▁replied	-9.40815
▁kg	-9.40991
▁try	-9.41003
▁Ngài	-9.41091
▁year	-9.41207
▁reached	-9.41218
▁Bán	-9.41401
▁video	-9.41471
▁khung	-9.41508
▁opened	-9.41759
▁deep	-9.41786
▁Gòn	-9.41936
▁vườn	-9.41966
▁feeling	-9.42366
▁school	-9.4264
▁Đình	-9.42647
▁Số	-9.4268
▁John	-9.42697
▁Chapter	-9.4274
▁wall	-9.42865
▁chảy	-9.42887
▁hề	-9.42916
▁phạt	-9.42925
▁Q	-9.43004
▁bad	-9.43134
▁chậm	-9.43149
▁tạm	-9.4319
▁Cũng	-9.433
▁continued	-9.4341
▁turn	-9.43434
▁Hưng	-9.43624
▁moved	-9.4365
▁buồn	-9.43713
▁bữa	-9.43754
▁loạt	-9.43828
▁quang	-9.43915
▁death	-9.44055
▁đợi	-9.44081
▁thơm	-9.44217
▁kho	-9.44388
▁fact	-9.44427
▁dinh	-9.44454
▁kì	-9.44532
▁sound	-9.44629
▁bụng	-9.44646
▁thôn	-9.4478
▁sắt	-9.44794
▁Jesus	-9.44929
▁hàm	-9.45067
▁probably	-9.45204
▁word	-9.45322
▁rối	-9.45399
▁đám	-9.45418
▁bề	-9.45526
▁ngôn	-9.45585
▁thờ	-9.45737
▁Lord	-9.45751
▁mừng	-9.45816
▁move	-9.45871
▁hào	-9.45902
▁thải	-9.46114
▁phường	-9.46343
▁chợ	-9.46361
▁live	-9.46385
▁Viện	-9.46494
▁ngang	-9.46546
▁ko	-9.46641
▁Kết	-9.46663
▁Khách	-9.46723
▁kem	-9.46848
▁ngực	-9.4688
▁điển	-9.47009
▁minutes	-9.47126
▁camera	-9.47184
▁thang	-9.47189
▁matter	-9.47271
▁hè	-9.47416
▁Let	-9.47483
▁Vương	-9.47607
▁online	-9.47618
▁cưới	-9.47639
▁đòi	-9.4769
▁truyện	-9.47717
▁within	-9.47722
▁trứng	-9.47737
▁Quy	-9.47826
▁Thu	-9.47835
▁onto	-9.47855
▁lượt	-9.4807
▁quê	-9.48101
▁nửa	-9.48317
▁outside	-9.48384
▁phone	-9.48447
▁become	-9.48479
▁lối	-9.48665
▁mm	-9.48746
▁money	-9.48761
▁bây	-9.48857
▁Hàng	-9.48858
▁Bởi	-9.48904
▁thoáng	-9.48981
▁thượng	-9.49047
▁care	-9.49141
▁red	-9.49159
▁xinh	-9.49181
▁everyone	-9.49199
▁loạn	-9.49358
▁cơn	-9.49423
▁friends	-9.49432
▁remember	-9.49493
▁ngừng	-9.49559
▁VN	-9.4973
▁lão	-9.49888
▁Xem	-9.50013
▁thự	-9.5013
▁dừng	-9.50177
▁căng	-9.50396
▁forward	-9.50452
▁free	-9.50487
▁ran	-9.50524
▁lan	-9.50538
▁fire	-9.50674
▁trần	-9.50968
▁alone	-9.51187
▁ngọt	-9.51218
▁breath	-9.51232
▁chào	-9.51318
▁upon	-9.51398
▁taking	-9.5143
▁Tử	-9.51465
▁kept	-9.5154
▁gan	-9.51572
▁Độ	-9.51635
▁nợ	-9.51719
▁ready	-9.51729
▁xưa	-9.51768
▁nghèo	-9.5192
▁tả	-9.51946
P	-9.51981
▁shook	-9.52065
▁Cùng	-9.52156
▁lỗ	-9.52239
▁ha	-9.52257
C	-9.52493
▁phú	-9.52566
▁Tháng	-9.52575
▁living	-9.52607
▁Lưu	-9.52705
▁hồn	-9.52804
▁não	-9.52902
▁loài	-9.53005
▁hadn	-9.5308
▁Thứ	-9.53259
▁wrong	-9.53336
▁băng	-9.53471
▁lost	-9.53498
▁Maybe	-9.53504
▁cài	-9.53762
▁finally	-9.53833
▁led	-9.53855
▁pin	-9.53996
▁thinking	-9.54171
▁Tiên	-9.54227
▁gương	-9.54227
▁children	-9.54345
▁start	-9.54367
▁tri	-9.54428
▁nhàng	-9.54435
▁change	-9.5444
▁Hóa	-9.54494
▁Làm	-9.54514
▁read	-9.54576
▁Phần	-9.54586
▁tổn	-9.54637
▁ngàn	-9.54639
▁cơm	-9.54687
▁Mẹ	-9.54781
▁Ngân	-9.54803
▁bãi	-9.54846
▁Dù	-9.55015
▁cm	-9.55131
▁Ta	-9.55192
▁nỗi	-9.55207
▁thở	-9.5533
▁diệt	-9.55332
▁nha	-9.55346
▁trú	-9.55517
▁trà	-9.55565
al	-9.55643
▁mệnh	-9.55951
k	-9.5596
▁slowly	-9.55961
▁tĩnh	-9.56013
▁thép	-9.56127
▁Giải	-9.56161
▁hot	-9.56236
▁cặp	-9.56455
▁either	-9.56465
▁Tiến	-9.56495
▁City	-9.565
▁Hệ	-9.56558
▁four	-9.56674
▁Sa	-9.5668
T	-9.56775
▁Báo	-9.56798
▁tan	-9.56964
▁true	-9.5733
▁stay	-9.57345
▁line	-9.5738
▁dược	-9.57419
▁binh	-9.57439
▁Hiệp	-9.57491
▁đài	-9.57493
▁On	-9.57525
▁bại	-9.57588
▁lô	-9.57778
▁watched	-9.57933
▁brought	-9.57941
▁tắt	-9.58048
▁quite	-9.58068
▁pain	-9.58203
▁Tiểu	-9.58273
▁ví	-9.58347
▁che	-9.58486
▁hy	-9.58507
▁Mặt	-9.58804
▁Định	-9.58819
▁đo	-9.58852
▁ép	-9.59049
▁dị	-9.59133
▁hư	-9.59446
▁tròn	-9.59531
▁given	-9.59634
▁lệnh	-9.59641
▁food	-9.59731
▁several	-9.59747
▁khuẩn	-9.5975
▁short	-9.59778
▁vỏ	-9.59819
▁reason	-9.59977
▁Phúc	-9.5999
▁Tâm	-9.60008
▁taken	-9.6003
▁kín	-9.60131
▁talking	-9.60225
▁city	-9.60363
▁dư	-9.60569
▁today	-9.60653
▁actually	-9.60729
▁nộp	-9.6086
▁trọn	-9.60956
▁Vân	-9.60961
▁question	-9.60966
▁ẩn	-9.61081
▁lưới	-9.61108
\\	-9.6111
ers	-9.6113
▁Quân	-9.61217
▁Are	-9.61221
▁đậu	-9.61316
▁trương	-9.61327
▁vua	-9.61339
▁story	-9.61503
▁giành	-9.6151
▁sense	-9.61707
▁boy	-9.61742
▁rời	-9.6183
▁ago	-9.61862
▁lips	-9.61908
▁Thủy	-9.62024
▁mỡ	-9.6208
▁Vĩnh	-9.62187
▁Câu	-9.62406
▁mộ	-9.62519
▁Yeah	-9.6254
▁Mặc	-9.62554
▁J	-9.62736
▁hẹn	-9.62815
▁lục	-9.62828
▁five	-9.6288
▁nhi	-9.63121
▁già	-9.63256
▁đỉnh	-9.63268
▁bơi	-9.63293
▁tụ	-9.63403
▁TT	-9.63464
▁Bí	-9.63588
▁Căn	-9.63593
▁Your	-9.63694
▁Hương	-9.637
▁thiểu	-9.6383
▁Địa	-9.63876
▁Quyết	-9.63896
▁followed	-9.64008
b	-9.64242
▁duyệt	-9.64252
▁vải	-9.64328
▁Sinh	-9.64417
▁Tuấn	-9.64447
▁Hình	-9.64595
▁Ma	-9.64755
▁mực	-9.64808
▁women	-9.64913
▁trào	-9.64949
▁mắn	-9.65111
▁trữ	-9.65238
▁closed	-9.65242
▁case	-9.65262
▁Phan	-9.65282
M	-9.65329
▁saying	-9.65374
▁maybe	-9.65578
▁child	-9.65593
▁mai	-9.65896
▁shoulder	-9.65897
▁tông	-9.65897
▁Khánh	-9.65958
▁tây	-9.66587
▁answer	-9.66607
▁béo	-9.66611
▁giày	-9.66651
▁thù	-9.66659
▁Nghệ	-9.66788
▁window	-9.66797
▁Tết	-9.6689
▁control	-9.66924
▁dậy	-9.67149
▁hope	-9.67395
▁trông	-9.67409
▁mãn	-9.67428
▁Dân	-9.67436
▁bọn	-9.67758
▁khủng	-9.67844
▁kêu	-9.67983
▁thập	-9.68037
▁hủy	-9.68073
▁blue	-9.68219
▁Is	-9.68388
▁Bác	-9.68518
▁chest	-9.68875
▁walk	-9.68943
▁đua	-9.6899
▁hiển	-9.69014
▁fell	-9.69083
▁decided	-9.6916
▁standing	-9.69237
▁de	-9.69281
▁bờ	-9.69297
▁Đào	-9.69306
▁hit	-9.69311
▁Lúc	-9.69426
▁phái	-9.69518
▁job	-9.69539
▁rãi	-9.69598
▁Thường	-9.69699
▁th	-9.69803
▁mệt	-9.69832
▁việt	-9.69847
▁loa	-9.69892
▁bò	-9.69919
▁hold	-9.69926
▁CP	-9.69994
▁giường	-9.70138
▁bốn	-9.70145
▁nêu	-9.70167
▁Can	-9.70185
▁Tình	-9.70257
▁su	-9.70377
▁waiting	-9.70436
▁vitamin	-9.70574
▁above	-9.70775
▁hỏng	-9.70924
▁Of	-9.70925
▁group	-9.70994
▁business	-9.71074
▁fear	-9.71124
▁sắm	-9.71162
▁mỏi	-9.71281
▁phức	-9.71421
▁tiềm	-9.71601
▁longer	-9.7162
▁treo	-9.71624
▁Man	-9.71667
▁Who	-9.71826
▁cold	-9.71868
▁laughed	-9.71898
▁bồi	-9.72016
▁Or	-9.72129
▁became	-9.72265
▁skin	-9.7229
▁hứng	-9.72355
▁order	-9.72619
▁less	-9.7269
▁Even	-9.72716
▁hours	-9.72792
▁bơm	-9.72809
▁Tiếp	-9.72903
▁phấn	-9.72953
▁tràn	-9.72981
▁Cục	-9.73081
▁known	-9.73147
▁chạm	-9.73276
▁met	-9.73311
▁World	-9.73465
▁chấm	-9.73604
▁nhuận	-9.73853
▁nổ	-9.73961
▁tệ	-9.74212
▁eye	-9.74236
▁Ngay	-9.74304
▁Sáng	-9.7442
▁lẻ	-9.74603
▁thiệt	-9.74673
▁sleep	-9.74709
▁office	-9.74749
▁sorry	-9.74859
▁nỗ	-9.74867
▁lãi	-9.74892
▁possible	-9.74916
▁ưa	-9.7506
▁đựng	-9.75354
▁during	-9.7554
▁Cổ	-9.75603
▁dao	-9.75642
▁giãn	-9.75806
▁chua	-9.75815
▁khán	-9.75933
▁spoke	-9.7598
▁couple	-9.76089
▁fingers	-9.7618
▁attention	-9.76443
▁tân	-9.76491
▁kênh	-9.76529
▁kill	-9.76781
▁tốn	-9.76786
▁stared	-9.76951
▁Hùng	-9.77043
▁happy	-9.77123
▁thọ	-9.77253
▁giỏi	-9.77257
▁near	-9.77487
▁dám	-9.77633
▁clear	-9.77771
▁bi	-9.77793
▁hiệp	-9.77886
▁view	-9.77942
▁vỡ	-9.77966
▁Ca	-9.77975
▁khớp	-9.78042
▁bring	-9.78049
▁cổng	-9.78051
▁yourself	-9.78065
▁chùa	-9.78124
▁brother	-9.78148
▁Biên	-9.78165
▁Quản	-9.7825
▁Thượng	-9.7829
▁looks	-9.78422
▁Sư	-9.78455
▁Mục	-9.78497
▁ngã	-9.78519
▁laptop	-9.78519
▁tàn	-9.78538
▁guy	-9.78574
▁vẽ	-9.78607
▁địch	-9.7881
▁Ảnh	-9.78819
ch	-9.78852
▁link	-9.78979
▁thua	-9.78995
▁form	-9.79145
▁khuyên	-9.7924
▁ngừa	-9.79275
▁sitting	-9.79315
▁caught	-9.79353
▁cột	-9.79408
▁phẫu	-9.79409
▁working	-9.79691
▁pretty	-9.79741
▁Trưởng	-9.79815
▁Where	-9.79861
▁sốt	-9.79956
▁important	-9.80014
▁truth	-9.80092
▁Đài	-9.8013
▁sôi	-9.80139
▁rather	-9.80148
▁road	-9.80198
▁Giấy	-9.80213
▁ôm	-9.8026
▁Xây	-9.80318
▁Tỉnh	-9.80451
▁trấn	-9.80474
▁chu	-9.80479
man	-9.80501
▁watch	-9.80506
▁nút	-9.80535
▁building	-9.80726
▁thánh	-9.80869
▁parents	-9.80906
▁đậm	-9.80919
▁cẩn	-9.80938
▁hell	-9.80982
▁mịn	-9.81124
▁giây	-9.81136
ness	-9.81291
▁ga	-9.8141
▁trầm	-9.81857
▁Di	-9.81913
▁kiên	-9.81985
▁meet	-9.82001
▁Christ	-9.82092
▁ĐT	-9.82196
▁Cầu	-9.82411
▁Google	-9.82508
▁tù	-9.8253
en	-9.82578
▁chúc	-9.82608
▁speak	-9.82644
▁nhôm	-9.82655
▁tán	-9.82661
▁passed	-9.82707
▁Tam	-9.82727
▁dứt	-9.82728
▁running	-9.82787
▁sex	-9.82944
▁màng	-9.83044
▁Hơn	-9.83055
▁Giao	-9.83132
▁Kế	-9.83221
▁Đất	-9.83261
▁Vị	-9.83365
▁Xin	-9.83383
▁Nhất	-9.83407
▁điệu	-9.83465
▁Facebook	-9.83597
▁isn	-9.83641
▁guess	-9.83675
▁beautiful	-9.83715
▁wait	-9.8374
▁sỹ	-9.83773
▁bar	-9.83806
▁Chất	-9.83848
▁Hạ	-9.83945
▁hùng	-9.83999
▁Cha	-9.84028
▁Vào	-9.84133
▁TNHH	-9.84251
▁lầm	-9.84324
▁chair	-9.84331
▁lí	-9.84383
▁stepped	-9.8443
▁often	-9.84578
▁chặn	-9.84579
▁cut	-9.84664
▁stand	-9.84748
▁mày	-9.84762
▁HLV	-9.85009
▁bang	-9.85044
▁Sử	-9.8507
▁ủng	-9.85125
▁thoughts	-9.8539
▁wife	-9.8541
▁fine	-9.85444
▁Nói	-9.85505
▁phun	-9.85672
▁giết	-9.85678
▁xâm	-9.85703
▁trục	-9.85719
▁Huế	-9.8579
▁Thuận	-9.85986
▁By	-9.8601
▁sun	-9.86074
▁means	-9.86086
▁giấc	-9.86125
▁nghìn	-9.86176
▁town	-9.86378
▁Mọi	-9.86542
▁o	-9.86557
▁Nước	-9.8663
▁Hành	-9.86649
▁Võ	-9.86699
▁Z	-9.86708
▁duyên	-9.86715
▁neck	-9.86828
▁tung	-9.86993
▁chance	-9.87029
▁dạ	-9.87034
▁Mua	-9.87089
▁giáp	-9.87214
N	-9.87238
▁Qua	-9.87249
▁Duy	-9.87278
▁bắn	-9.87301
▁sent	-9.87352
▁thuyền	-9.87437
▁Trọng	-9.87463
▁gợi	-9.87481
▁canh	-9.87506
▁lay	-9.8752
▁nhãn	-9.87537
▁http	-9.87546
▁va	-9.87828
▁suddenly	-9.87982
▁thùng	-9.88023
x	-9.88031
▁return	-9.88079
▁Paul	-9.88165
▁Cái	-9.8818
▁khích	-9.88351
▁play	-9.88355
▁chục	-9.88377
▁hung	-9.88397
▁information	-9.88506
▁area	-9.8853
▁phó	-9.88712
▁Lương	-9.88744
▁đợt	-9.88802
▁TPHCM	-9.8886
▁Samsung	-9.89258
▁nướng	-9.89282
▁bão	-9.89366
▁thách	-9.89433
▁ship	-9.89487
▁thổ	-9.89628
▁problem	-9.89804
▁ác	-9.89828
▁thắc	-9.89933
▁click	-9.89947
▁themselves	-9.89962
▁sa	-9.89991
▁hurt	-9.90008
▁cell	-9.90022
▁holding	-9.90058
▁mạc	-9.90094
▁Bằng	-9.9019
▁giọng	-9.90272
▁lặng	-9.90314
▁ng	-9.9038
▁ten	-9.90402
▁Tiền	-9.90457
▁hô	-9.90543
▁thấm	-9.90555
▁thâm	-9.90587
▁nhắn	-9.90602
▁ái	-9.90733
▁phán	-9.90751
▁THPT	-9.90773
▁lâm	-9.90835
▁Tôn	-9.90886
▁Internet	-9.90901
▁bát	-9.9092
▁xóa	-9.9098
▁gạo	-9.90981
▁bông	-9.91013
▁tảng	-9.91096
▁earth	-9.91129
▁Hướng	-9.9115
▁Cuộc	-9.91199
▁returned	-9.91229
▁đạp	-9.91528
▁glass	-9.91529
▁grabbed	-9.91548
▁Tìm	-9.91586
▁Did	-9.91615
▁ạ	-9.91644
▁appeared	-9.91654
▁huấn	-9.91656
▁rác	-9.91658
▁khấu	-9.917
▁strong	-9.91784
▁Hữu	-9.91893
▁giặt	-9.91947
▁cương	-9.9197
▁bể	-9.92001
▁móc	-9.92213
▁shall	-9.92511
▁hour	-9.92597
▁Trương	-9.92626
▁die	-9.92675
▁Nữ	-9.92682
▁Giới	-9.92686
▁cannot	-9.9274
▁Quan	-9.92809
▁Lễ	-9.92832
▁plan	-9.92894
▁Ấn	-9.92924
▁đuổi	-9.9297
▁tr	-9.92971
▁self	-9.93032
▁fight	-9.93039
▁Phước	-9.93179
▁đốt	-9.93264
▁Cảnh	-9.9327
▁Đăng	-9.93355
▁TV	-9.93358
▁túc	-9.93411
▁Toàn	-9.93588
▁week	-9.93588
▁watching	-9.93591
▁Dũng	-9.93606
▁step	-9.93652
▁filled	-9.93716
▁seat	-9.9375
▁hoang	-9.93775
▁Singapore	-9.93853
▁huynh	-9.93873
▁muối	-9.93904
▁Tiếng	-9.9394
▁Good	-9.93966
▁Đa	-9.94123
▁hôi	-9.94144
▁Tự	-9.9416
▁Huyện	-9.94237
▁closer	-9.94249
▁Phụ	-9.94258
▁miếng	-9.94282
▁Bước	-9.94297
▁bê	-9.9431
▁Cup	-9.94327
▁chín	-9.94345
▁trộn	-9.94355
▁đập	-9.94372
▁Chuyên	-9.94488
▁lives	-9.94528
▁ruột	-9.94807
▁Tàu	-9.94816
▁dán	-9.94847
▁thầu	-9.95001
▁late	-9.95064
▁cấm	-9.95068
▁mỏng	-9.95122
▁www	-9.95131
▁Thần	-9.95135
▁meant	-9.95229
▁Tòa	-9.95263
▁space	-9.95266
▁sánh	-9.9527
▁legs	-9.95292
▁ro	-9.95295
▁khóc	-9.95451
▁Apple	-9.95471
▁Tính	-9.95499
▁l	-9.95633
▁un	-9.95641
▁bạch	-9.9577
▁Chiến	-9.95828
▁Park	-9.95858
▁bối	-9.96128
▁đuôi	-9.96359
▁file	-9.96433
▁noticed	-9.96538
▁Phi	-9.96636
▁tẩy	-9.9687
▁leaving	-9.96933
▁cờ	-9.96972
▁cáp	-9.97069
▁hiếm	-9.97089
▁email	-9.9713
▁green	-9.97164
▁dâm	-9.97428
▁shop	-9.97445
▁Lai	-9.97451
▁thói	-9.975
▁okay	-9.97642
▁Song	-9.97735
▁cản	-9.9776
▁bọc	-9.9777
▁vang	-9.97817
▁nở	-9.97852
▁shot	-9.97892
▁quỹ	-9.97893
▁ong	-9.98008
▁Vi	-9.98154
▁ngài	-9.98163
▁Some	-9.98212
▁đệ	-9.98215
▁lãng	-9.98224
▁completely	-9.98249
▁buôn	-9.98255
on	-9.98289
ic	-9.98375
▁war	-9.98381
▁Trump	-9.98393
▁However	-9.98603
▁vinh	-9.98647
▁tỏa	-9.98728
▁đai	-9.98803
▁hà	-9.98934
▁xuân	-9.98959
▁hứa	-9.99006
▁single	-9.99034
▁Đề	-9.9905
▁Allah	-9.99056
▁Bất	-9.99112
▁chừng	-9.99113
▁moving	-9.99196
▁cốt	-9.99275
▁Ngoại	-9.99298
▁ngưỡng	-9.99334
▁Điểm	-9.99346
▁Chị	-9.99392
▁đắc	-9.99518
▁makes	-9.99518
▁seem	-9.99529
an	-9.99582
▁vong	-9.99617
▁exactly	-9.99728
▁kitchen	-9.99744
▁huống	-9.99755
▁bám	-9.99793
▁Sam	-9.99942
▁land	-9.99983
▁ảo	-9.99993
▁tách	-10.0021
▁xưởng	-10.0021
▁simply	-10.0031
▁Huy	-10.0032
▁hang	-10.0041
▁Mình	-10.0041
▁happen	-10.0042
▁further	-10.0054
▁killed	-10.0055
▁comes	-10.0063
▁Go	-10.0073
▁Vinh	-10.0079
▁trội	-10.0084
▁using	-10.0092
▁please	-10.0115
z	-10.0126
▁Sửa	-10.0127
▁HD	-10.0129
▁chuột	-10.0134
▁mi	-10.0139
▁Triều	-10.0139
▁đĩa	-10.0144
▁xoay	-10.0146
▁Doanh	-10.0153
▁sợi	-10.0157
▁Cụ	-10.0159
▁break	-10.0182
▁early	-10.0185
▁kịch	-10.0194
▁raised	-10.0199
▁II	-10.02
▁mảnh	-10.0214
▁Ngô	-10.0218
▁Nông	-10.0221
▁nice	-10.0224
▁Dr	-10.0226
▁Hôm	-10.0227
▁hỗn	-10.0229
▁walking	-10.023
▁Úc	-10.0231
▁giật	-10.0233
▁Đội	-10.0242
▁tha	-10.0244
▁fast	-10.0254
▁thảm	-10.027
▁tiệc	-10.0271
▁instead	-10.0272
▁These	-10.0272
▁entire	-10.0273
▁khen	-10.0279
▁khoáng	-10.0288
▁baby	-10.0289
▁Mã	-10.0296
▁Thể	-10.0309
▁Ý	-10.0311
▁picked	-10.0329
▁Ai	-10.0334
▁tựa	-10.0334
▁gỡ	-10.0342
▁Dưới	-10.0348
▁mười	-10.0349
▁đế	-10.0356
▁realized	-10.0363
▁May	-10.0363
▁Tham	-10.0366
▁system	-10.0373
▁James	-10.0396
▁expression	-10.0399
▁Vụ	-10.0411
▁nhảy	-10.0414
▁dính	-10.0417
▁xăng	-10.042
▁team	-10.0421
▁whatever	-10.0426
▁dường	-10.0428
▁sit	-10.0436
▁cỡ	-10.0441
▁King	-10.0442
▁tật	-10.0443
▁corner	-10.0454
▁Chu	-10.0454
▁low	-10.0456
▁Bạch	-10.0457
▁ngập	-10.0459
▁táo	-10.0466
▁Diện	-10.047
▁nhánh	-10.0491
▁cỏ	-10.0494
▁soul	-10.0501
▁sky	-10.0502
▁mine	-10.0504
▁pushed	-10.0513
▁trại	-10.0516
▁tree	-10.0516
▁safe	-10.054
▁certain	-10.056
▁state	-10.056
▁thả	-10.0567
▁Lộc	-10.0568
▁tuệ	-10.0583
▁check	-10.0592
▁chở	-10.0601
▁sister	-10.0605
▁whispered	-10.061
▁Our	-10.0612
▁sort	-10.0614
▁leaned	-10.062
▁Thay	-10.0623
▁Come	-10.0636
▁future	-10.0648
▁fall	-10.0659
▁Tăng	-10.0663
▁f	-10.0665
▁Thầy	-10.0669
▁straight	-10.0671
▁trống	-10.0677
▁bó	-10.0689
▁tháo	-10.0696
▁Bồ	-10.0696
▁David	-10.0699
▁silence	-10.0703
▁months	-10.0709
▁súng	-10.071
▁mọc	-10.0711
▁follow	-10.0718
▁worked	-10.072
▁khoán	-10.0722
▁cát	-10.0724
A	-10.0725
▁xứng	-10.0728
▁bớt	-10.0728
▁Ví	-10.0728
▁loved	-10.0734
▁cong	-10.0736
▁Mới	-10.074
B	-10.0762
▁deal	-10.0764
f	-10.0769
▁chó	-10.077
▁ngắm	-10.0771
▁foot	-10.0777
▁phỏng	-10.0793
▁ĐH	-10.0798
▁săn	-10.08
▁ahead	-10.0802
▁chấn	-10.0809
▁dropped	-10.0811
▁street	-10.0812
▁middle	-10.0813
▁dâu	-10.0814
▁Okay	-10.0818
▁triệt	-10.0821
▁immediately	-10.083
▁easy	-10.0841
▁inch	-10.0845
▁knows	-10.0849
▁answered	-10.0853
▁seeing	-10.0867
▁Thật	-10.0871
le	-10.0879
▁đà	-10.0884
▁questions	-10.0885
▁figure	-10.0888
▁Dung	-10.0891
v	-10.0915
able	-10.0917
▁Động	-10.0917
▁thạch	-10.0946
▁hằng	-10.0953
▁chúa	-10.0967
▁Once	-10.0971
▁vân	-10.0972
▁girls	-10.0976
▁Hợp	-10.0979
▁placed	-10.0984
▁giving	-10.1003
▁củ	-10.1026
▁news	-10.1028
▁ghép	-10.1037
▁tiếc	-10.1048
▁touch	-10.1052
▁Nên	-10.1056
▁lò	-10.1065
▁chuỗi	-10.107
▁Thank	-10.1072
▁đam	-10.1086
j	-10.1091
▁Loại	-10.1091
▁Lào	-10.1092
▁vương	-10.1093
▁Loan	-10.1097
▁six	-10.1098
▁TS	-10.1105
▁Đã	-10.1109
▁experience	-10.111
▁rủi	-10.1116
▁tọa	-10.1124
▁itself	-10.1125
▁net	-10.1129
▁Cửa	-10.1131
▁ngón	-10.1136
▁nạp	-10.1144
▁van	-10.1148
▁nồi	-10.115
▁died	-10.1155
▁direction	-10.1159
▁giận	-10.1163
▁phu	-10.1168
▁Đạo	-10.1173
▁Like	-10.1178
▁ổ	-10.118
▁viễn	-10.1184
▁phím	-10.1186
▁Danh	-10.1205
▁Thư	-10.1212
▁Diễn	-10.1214
▁tears	-10.1216
▁eat	-10.1219
▁FRE	-10.1226
▁kĩ	-10.1227
▁wide	-10.1247
▁Cả	-10.1249
▁Truyền	-10.1254
▁path	-10.1259
▁chuộng	-10.1264
▁Kiểm	-10.1275
▁covered	-10.1284
▁hầm	-10.1285
▁empty	-10.1296
▁Thơ	-10.1299
▁beside	-10.13
H	-10.1314
▁seems	-10.1315
▁Tom	-10.1316
▁gạch	-10.1319
▁Phim	-10.1332
▁chăn	-10.1332
▁ho	-10.1333
▁telling	-10.1347
▁worry	-10.1349
▁nhịp	-10.1353
▁đàm	-10.1354
▁đeo	-10.1358
▁clothes	-10.136
▁váy	-10.1364
▁pay	-10.1368
▁mưu	-10.1369
▁Đ	-10.1369
▁ốc	-10.1405
▁Pro	-10.1421
▁throat	-10.1422
▁edge	-10.1428
▁Me	-10.1428
▁finished	-10.1428
▁sight	-10.143
▁bạo	-10.1432
▁bẩn	-10.1438
▁ngộ	-10.145
▁cắm	-10.1452
▁sanh	-10.1454
▁changed	-10.1459
▁trúng	-10.1461
▁Jack	-10.147
▁strange	-10.1484
▁Alex	-10.1486
▁Thọ	-10.1487
▁nấm	-10.1488
▁pointed	-10.1489
▁waited	-10.15
▁Please	-10.1526
▁bắc	-10.1534
▁wondered	-10.1537
▁trích	-10.1538
▁vẹn	-10.1552
▁nhạy	-10.1553
▁xách	-10.1584
na	-10.1595
▁Chinese	-10.1602
▁energy	-10.1612
▁situation	-10.1621
▁level	-10.1622
▁drink	-10.1646
▁Kiến	-10.1654
▁gun	-10.1655
▁hundred	-10.166
▁ngơi	-10.1661
▁mẻ	-10.1666
▁quiet	-10.1668
▁trees	-10.1678
▁hàn	-10.1683
▁evil	-10.1689
▁From	-10.169
▁Earth	-10.1697
▁York	-10.1703
▁shirt	-10.171
▁lệch	-10.1714
▁DN	-10.1718
▁Rất	-10.1725
▁chim	-10.1725
▁ân	-10.1726
▁vội	-10.173
▁Đồ	-10.1731
▁beyond	-10.175
▁Xã	-10.175
▁Nghĩa	-10.1753
▁Galaxy	-10.1757
▁tôm	-10.1759
▁đền	-10.1766
▁mờ	-10.1774
▁position	-10.1779
▁guys	-10.1781
us	-10.1801
▁force	-10.1806
▁Cảm	-10.1824
▁trust	-10.1826
▁cậy	-10.1833
▁bá	-10.1834
▁nearly	-10.1834
▁arrived	-10.1845
th	-10.1846
▁bag	-10.1846
▁added	-10.1847
▁Al	-10.1854
▁following	-10.186
▁thuần	-10.187
▁warm	-10.1877
▁age	-10.1891
▁coffee	-10.1894
▁country	-10.1894
▁glanced	-10.1895
▁dịu	-10.1899
▁sạc	-10.1905
▁alive	-10.1909
▁Chung	-10.1911
▁however	-10.1916
▁box	-10.192
▁GB	-10.1921
▁Thảo	-10.1929
▁mầm	-10.1932
▁Chiều	-10.194
▁minute	-10.1945
▁lãm	-10.1947
▁Cung	-10.195
▁ngạc	-10.1961
▁shoulders	-10.1965
▁ngọc	-10.1978
▁tết	-10.198
▁khát	-10.199
▁dọc	-10.1991
▁Mẫu	-10.1995
▁tour	-10.2006
▁Nhận	-10.2006
▁among	-10.2011
▁Adam	-10.2018
▁perfect	-10.2019
▁hỏa	-10.2034
▁Vietnam	-10.2041
▁kids	-10.2056
G	-10.2073
▁shut	-10.2088
▁police	-10.2092
▁thăng	-10.2098
▁chăng	-10.2104
▁spent	-10.211
▁nám	-10.2112
▁xơ	-10.213
▁Thắng	-10.2131
▁Ben	-10.2134
▁đắt	-10.214
▁thợ	-10.2144
▁desk	-10.2146
▁Cuối	-10.2154
▁ECO	-10.2155
▁bì	-10.2157
▁cước	-10.2162
▁Thích	-10.2177
▁soft	-10.2181
▁ngọn	-10.2196
▁brain	-10.2204
▁Dùng	-10.2212
▁ngâm	-10.2213
▁Kỹ	-10.2218
▁Hi	-10.2241
▁Thi	-10.2253
▁Because	-10.2261
▁heavy	-10.2269
▁conversation	-10.2271
▁meeting	-10.2271
▁learn	-10.2283
▁sighed	-10.2284
▁twenty	-10.2289
▁Nhờ	-10.2295
▁whether	-10.2297
▁Chánh	-10.2299
▁afraid	-10.2302
▁gối	-10.231
▁võ	-10.2314
▁perhaps	-10.2318
▁Hoàn	-10.2318
ra	-10.233
▁yes	-10.2336
▁supposed	-10.2345
▁cất	-10.2351
▁Michael	-10.2352
▁túy	-10.2361
▁Đừng	-10.2368
▁San	-10.2376
▁wish	-10.2377
▁bia	-10.2381
▁dream	-10.2383
▁chủng	-10.2383
▁daughter	-10.2386
▁Sim	-10.2389
▁dàn	-10.2391
▁QĐ	-10.2402
▁lừa	-10.2407
▁wind	-10.2409
▁mạn	-10.2415
▁lúa	-10.2418
L	-10.2424
▁gaze	-10.2424
▁wants	-10.2425
▁điệp	-10.2437
▁Viên	-10.2437
▁knowing	-10.2438
▁tàng	-10.2438
▁main	-10.2439
▁ones	-10.2441
▁class	-10.2447
▁dad	-10.2453
▁distance	-10.2464
▁phơi	-10.2467
▁surprised	-10.2469
▁weeks	-10.2477
▁anyway	-10.2481
▁League	-10.2484
▁rũ	-10.2484
▁books	-10.2498
▁Âm	-10.2502
▁Him	-10.2503
▁share	-10.2506
▁Tô	-10.2514
▁Lao	-10.2516
▁phiền	-10.2522
▁Mark	-10.2523
▁stuff	-10.2524
▁Game	-10.2526
▁quick	-10.2549
▁evening	-10.2551
▁Đèn	-10.2555
▁stone	-10.2556
▁especially	-10.2564
▁nầy	-10.2564
▁Nhìn	-10.2568
▁sign	-10.2568
▁pull	-10.2577
▁lũ	-10.258
▁lived	-10.2582
▁reach	-10.2591
▁Here	-10.2595
▁company	-10.2601
▁De	-10.262
▁kệ	-10.2621
▁cú	-10.2626
▁hẹp	-10.2646
▁needs	-10.2647
▁lát	-10.2648
▁thằng	-10.2648
▁huge	-10.2654
▁Malaysia	-10.2662
▁headed	-10.2668
▁lang	-10.2669
▁lít	-10.2677
▁xả	-10.2678
▁tuân	-10.2684
▁nếp	-10.2704
▁internet	-10.2708
▁finger	-10.2711
▁Canada	-10.2712
D	-10.2714
▁turning	-10.2716
▁Hey	-10.2716
▁GD	-10.2717
▁trôi	-10.2727
▁hiến	-10.2731
▁cúng	-10.2736
▁House	-10.2739
▁tonight	-10.2754
▁Trà	-10.2755
▁showed	-10.276
▁Two	-10.2763
▁chối	-10.277
▁Nghe	-10.278
▁haven	-10.2781
▁Trời	-10.2787
▁nose	-10.2788
▁quyến	-10.28
▁staring	-10.2815
▁Nai	-10.2817
▁Lịch	-10.2825
▁soi	-10.283
▁nhượng	-10.2832
▁scale	-10.2835
▁piece	-10.2836
▁Tiêu	-10.2853
▁round	-10.2855
▁bấm	-10.2877
▁dọa	-10.2879
▁entered	-10.2883
▁Tên	-10.2885
▁lead	-10.2889
▁rắn	-10.2891
▁Video	-10.2894
▁Tĩnh	-10.2899
▁lam	-10.2903
▁chán	-10.2903
▁đúc	-10.2905
▁steps	-10.291
▁hối	-10.2921
▁paper	-10.2922
▁present	-10.2932
▁mồ	-10.2933
▁trouble	-10.2941
▁knowledge	-10.2941
▁Tinh	-10.2948
▁Dược	-10.2952
▁slightly	-10.2954
▁dừa	-10.2975
▁walls	-10.2989
▁Tp	-10.299
▁nén	-10.2993
▁reading	-10.2996
▁cựu	-10.3005
▁pass	-10.3006
▁GEO	-10.3015
▁husband	-10.302
▁size	-10.3021
▁Hậu	-10.3037
▁Trí	-10.3046
▁Giêsu	-10.3053
▁Mary	-10.3055
▁smartphone	-10.3058
▁rung	-10.3063
▁law	-10.3071
▁Bùi	-10.3083
▁stomach	-10.3083
▁Thụy	-10.3085
▁Thống	-10.3088
▁Bến	-10.3102
▁drive	-10.3123
▁chiết	-10.3126
▁American	-10.313
▁except	-10.3135
▁bận	-10.3145
▁nồng	-10.3146
▁chẽ	-10.316
▁dĩ	-10.3165
▁darkness	-10.3166
▁loud	-10.3168
▁sót	-10.3172
▁hâm	-10.3174
▁Đinh	-10.3178
▁rock	-10.3184
▁kiss	-10.3192
▁lưỡi	-10.3192
▁government	-10.3201
▁Na	-10.3212
▁ancient	-10.3231
▁Plus	-10.324
▁mom	-10.3241
▁cause	-10.3262
▁Thân	-10.3275
▁Hay	-10.3282
▁lau	-10.3285
▁cancer	-10.3287
▁ức	-10.3293
▁hi	-10.3304
▁vĩ	-10.3304
▁personal	-10.3305
▁Hy	-10.3309
▁bút	-10.3311
▁Android	-10.3312
▁trộm	-10.3315
▁Yêu	-10.3315
▁party	-10.332
▁Windows	-10.3321
▁sword	-10.3332
ation	-10.3354
▁rolled	-10.3357
▁lộc	-10.3359
▁process	-10.336
▁quạt	-10.3362
▁attack	-10.3366
▁tia	-10.3369
▁Tim	-10.3369
▁Bàn	-10.3374
▁cover	-10.3379
▁hoảng	-10.3383
▁tá	-10.3386
▁below	-10.3403
▁bồn	-10.3403
▁rỡ	-10.3403
▁Nơi	-10.3409
▁trưa	-10.3409
▁chốt	-10.3414
▁While	-10.3416
▁tone	-10.3427
▁Sao	-10.3429
▁broken	-10.3432
▁nhẫn	-10.3435
▁simple	-10.3437
▁model	-10.3449
▁allowed	-10.345
▁êm	-10.3451
▁Biển	-10.3453
▁laugh	-10.3456
▁sometimes	-10.3465
▁More	-10.3467
▁download	-10.3475
▁Trị	-10.3475
▁tam	-10.348
▁fun	-10.3484
▁tráng	-10.3485
▁church	-10.3488
▁guard	-10.3492
▁doors	-10.35
▁khoan	-10.3502
▁faith	-10.3508
▁managed	-10.3512
▁Online	-10.3514
▁vú	-10.3516
▁key	-10.3517
▁normal	-10.3523
nh	-10.3526
▁act	-10.3534
▁ch	-10.3536
▁beginning	-10.3547
less	-10.3551
▁wearing	-10.3555
▁Lợi	-10.3557
▁nhạt	-10.3573
▁tomorrow	-10.3574
▁cells	-10.358
▁lifted	-10.3585
▁trạm	-10.3586
ta	-10.3588
▁doubt	-10.3594
▁mây	-10.3596
▁Israel	-10.3596
▁đắp	-10.3605
▁relationship	-10.3613
▁soạn	-10.3615
▁nh	-10.3617
▁mạo	-10.3628
▁vặt	-10.363
K	-10.3635
▁seconds	-10.3638
▁crowd	-10.364
▁Đi	-10.3654
▁khéo	-10.366
▁mì	-10.3661
▁bù	-10.3661
▁tháp	-10.3664
▁nature	-10.367
▁Their	-10.3681
ity	-10.3683
▁xạ	-10.3687
▁vuông	-10.3706
▁ear	-10.3711
▁special	-10.3712
▁difficult	-10.3715
▁Cường	-10.3717
▁trật	-10.3718
▁ơi	-10.3721
▁Peter	-10.3723
▁Quỳnh	-10.3733
▁takes	-10.3738
▁lót	-10.3738
▁dinner	-10.3742
▁cướp	-10.3744
▁Dầu	-10.3745
▁barely	-10.3747
▁tần	-10.3748
▁teeth	-10.3754
▁hổ	-10.3758
▁save	-10.376
▁choice	-10.3762
▁mộng	-10.3767
▁Da	-10.3777
▁Bao	-10.3799
▁khuyết	-10.38
▁Phải	-10.3802
▁Nhạc	-10.3806
▁Kiều	-10.3807
▁catch	-10.3808
▁Nghiên	-10.3812
▁history	-10.3819
▁wonder	-10.3819
▁shit	-10.3821
▁xông	-10.3833
▁đoạt	-10.3835
▁CLB	-10.3835
▁Before	-10.3838
or	-10.3851
▁somewhere	-10.3855
▁Dad	-10.3855
▁Father	-10.3858
▁Mrs	-10.3861
▁ven	-10.3862
▁sea	-10.3866
▁vạn	-10.3869
▁chanh	-10.3874
▁khẩn	-10.3875
▁Max	-10.3875
▁trốn	-10.3878
▁Home	-10.3881
▁liều	-10.3892
▁Be	-10.3894
▁Đô	-10.3898
▁châm	-10.3899
▁Nhi	-10.3907
▁NĐ	-10.3911
▁lỏng	-10.3918
re	-10.3918
▁bổng	-10.392
▁secret	-10.3922
▁note	-10.3923
▁tall	-10.3941
▁magic	-10.3949
▁battle	-10.3949
▁Phường	-10.3952
▁Perhaps	-10.3953
▁United	-10.3954
▁surprise	-10.3957
▁trượt	-10.3964
▁pick	-10.3977
▁clean	-10.3993
▁lăng	-10.3994
▁Chúc	-10.3997
▁Mùa	-10.4001
▁thấu	-10.4001
▁al	-10.4005
▁tứ	-10.4011
▁Vũng	-10.4012
▁sen	-10.4013
▁chai	-10.4027
▁Most	-10.4027
▁anymore	-10.4032
▁tím	-10.4036
▁rose	-10.4042
▁hall	-10.4051
▁public	-10.4053
▁thầm	-10.4066
▁im	-10.4072
▁Only	-10.4086
▁George	-10.4088
▁ways	-10.4094
▁continue	-10.4101
▁support	-10.4102
▁thô	-10.4105
▁brown	-10.4109
▁response	-10.411
▁St	-10.4123
▁Triệu	-10.4125
co	-10.4126
▁inox	-10.4127
▁local	-10.413
▁expected	-10.413
▁serious	-10.4132
▁KH	-10.4134
▁broke	-10.4142
▁thiệp	-10.4144
▁remembered	-10.4156
▁Real	-10.4156
▁sofa	-10.4156
▁Lạc	-10.4157
▁ôn	-10.4162
▁explain	-10.4165
▁chuyền	-10.417
▁nụ	-10.4173
▁worse	-10.4174
▁Màu	-10.4175
▁đỗ	-10.4178
▁Cát	-10.4178
▁goes	-10.4181
▁cảng	-10.4182
▁test	-10.4183
▁sáu	-10.4183
▁leo	-10.419
▁COM	-10.419
▁heo	-10.4191
▁Đơn	-10.4191
▁created	-10.4192
▁remained	-10.4195
▁cụm	-10.4201
▁rực	-10.4205
▁LED	-10.4206
▁ngõ	-10.4207
▁slow	-10.421
▁dress	-10.4212
▁phế	-10.4227
▁Nothing	-10.4235
▁Lời	-10.4241
▁peace	-10.4243
▁Môi	-10.4267
▁Will	-10.4269
▁card	-10.427
▁mảng	-10.4284
▁Cây	-10.4295
▁khói	-10.4298
▁muộn	-10.43
Y	-10.4301
▁Cam	-10.4302
▁khe	-10.4303
▁album	-10.4305
▁chánh	-10.4314
▁giam	-10.4317
▁Xuất	-10.4318
▁Hồi	-10.4319
te	-10.4324
▁Mà	-10.4324
▁mến	-10.4327
▁kề	-10.4333
▁cống	-10.4334
▁cược	-10.434
▁helped	-10.4341
▁earlier	-10.4341
▁sướng	-10.4343
▁menu	-10.4352
▁triều	-10.4353
ma	-10.4353
▁gas	-10.4355
▁bắp	-10.4359
▁Chẳng	-10.436
▁weren	-10.4365
▁Áo	-10.4379
▁thick	-10.4384
▁đệm	-10.4384
ling	-10.44
ist	-10.4405
▁ghé	-10.4411
▁Ni	-10.4412
▁mông	-10.4414
▁Hiệu	-10.4422
▁born	-10.4424
▁HIS	-10.4429
▁hoan	-10.443
▁khứ	-10.4431
▁usually	-10.4434
▁poor	-10.4438
▁field	-10.4441
▁đói	-10.4447
I	-10.4451
▁dã	-10.4454
▁tiễn	-10.4461
▁bright	-10.4465
▁lồ	-10.4472
▁clearly	-10.4473
▁sounds	-10.4474
▁agreed	-10.4475
▁third	-10.4484
▁huyền	-10.4484
F	-10.4484
▁although	-10.4486
▁nạ	-10.4487
▁tiny	-10.4491
▁reality	-10.4492
▁Toán	-10.4494
▁Hạnh	-10.4494
▁music	-10.4497
▁trơn	-10.4498
▁Lạt	-10.4501
▁Chiếc	-10.4509
▁Miss	-10.4514
▁visit	-10.4519
▁grew	-10.452
▁playing	-10.4526
ia	-10.4528
▁strength	-10.4535
▁offered	-10.454
▁w	-10.4553
▁explained	-10.4561
▁dog	-10.4563
▁bến	-10.4563
▁Rồi	-10.4566
▁type	-10.457
ism	-10.4574
▁center	-10.4574
▁easily	-10.4575
▁metal	-10.4579
▁https	-10.4581
▁kiệt	-10.4582
▁certainly	-10.4584
▁Hoặc	-10.4589
▁mươi	-10.4591
Tôi	-10.4599
▁threw	-10.4599
▁hat	-10.4608
V	-10.4609
▁cay	-10.4609
▁khâu	-10.461
▁massage	-10.4612
▁cool	-10.4623
▁đe	-10.4624
▁dọn	-10.4628
▁ml	-10.463
▁Trịnh	-10.4631
▁khiếu	-10.4636
▁forced	-10.464
▁Have	-10.4648
▁bôi	-10.4653
▁khái	-10.4657
▁oxy	-10.466
▁learned	-10.4667
▁niêm	-10.4673
▁Hầu	-10.4676
▁example	-10.4678
▁mini	-10.4685
▁likely	-10.469
▁Thiếu	-10.4709
▁silent	-10.4714
▁anger	-10.4715
▁thắt	-10.4719
▁Mom	-10.4722
▁xóm	-10.4729
▁data	-10.4731
▁final	-10.4733
▁pop	-10.4741
▁ngựa	-10.4745
▁pair	-10.4745
▁tired	-10.4764
▁Lục	-10.4766
▁win	-10.4783
▁Look	-10.4784
▁chép	-10.4786
▁Was	-10.4786
▁visa	-10.479
▁ướt	-10.4803
▁Đỗ	-10.481
▁shouted	-10.4811
▁chinh	-10.4811
▁jumped	-10.4819
▁Re	-10.4819
▁Tác	-10.4829
▁Air	-10.4834
▁fan	-10.4834
▁rào	-10.4839
▁post	-10.4841
son	-10.4845
▁Gần	-10.4847
▁complete	-10.4852
▁Trẻ	-10.4852
▁Huyền	-10.4855
el	-10.4869
▁message	-10.4872
▁protein	-10.4879
▁virus	-10.4883
▁computer	-10.4884
▁picture	-10.4885
▁including	-10.4886
▁cafe	-10.4891
▁mốc	-10.4892
▁bảy	-10.4899
▁cốc	-10.4902
▁stairs	-10.4908
▁presence	-10.4912
▁carried	-10.492
▁London	-10.4923
▁king	-10.4924
▁kí	-10.4924
▁Ra	-10.493
▁horse	-10.4931
▁begin	-10.4939
▁Sony	-10.4941
▁mòn	-10.4941
▁khoái	-10.4941
▁MAT	-10.4943
▁Sure	-10.4949
▁handed	-10.4961
▁cãi	-10.4961
▁Mô	-10.4979
▁University	-10.4993
▁shrugged	-10.4994
rs	-10.5008
▁má	-10.5009
ton	-10.501
▁chậu	-10.5011
▁Ching	-10.5013
to	-10.5015
▁Thạnh	-10.5015
▁rèn	-10.5015
▁gently	-10.5025
▁Hoài	-10.5026
▁angry	-10.5029
▁lôi	-10.5033
▁smell	-10.5035
▁khổng	-10.5039
▁xế	-10.504
▁chìm	-10.5043
O	-10.5046
▁Phân	-10.5046
▁asking	-10.505
▁tràng	-10.5052
▁considered	-10.5054
▁bottom	-10.5056
▁ồn	-10.5066
▁memory	-10.5066
▁liked	-10.5078
▁Paris	-10.5082
▁beneath	-10.5082
▁image	-10.5092
▁rao	-10.5102
▁Feng	-10.5104
▁send	-10.5105
▁Mike	-10.5115
▁đáy	-10.5121
▁glad	-10.5122
▁Chọn	-10.5123
▁ngầm	-10.5123
▁Thêm	-10.5124
▁worried	-10.5125
▁mau	-10.5126
▁bo	-10.5132
▁Tùy	-10.5135
▁USB	-10.5136
▁pocket	-10.5141
ie	-10.5143
▁First	-10.515
▁Star	-10.515
▁san	-10.5153
▁bedroom	-10.5154
▁mù	-10.5156
▁Tấn	-10.5164
▁tựu	-10.5167
▁Tuyên	-10.5172
▁chiên	-10.518
▁kissed	-10.5186
▁action	-10.519
▁ám	-10.5195
▁Those	-10.5195
▁quietly	-10.5198
▁study	-10.5199
▁Giờ	-10.5203
E	-10.5208
▁Nguồn	-10.5217
▁physical	-10.5219
▁quái	-10.5222
▁aren	-10.5234
▁Thịnh	-10.5241
▁Shui	-10.5242
▁sounded	-10.5244
▁escape	-10.5246
et	-10.5246
▁xi	-10.5248
▁bón	-10.5251
▁screen	-10.5251
▁notice	-10.5261
▁tang	-10.5276
▁tem	-10.5284
▁thiền	-10.5292
▁places	-10.5292
▁dâng	-10.5293
▁lady	-10.5297
▁allow	-10.5304
▁sấy	-10.5316
▁spot	-10.5319
▁gets	-10.532
est	-10.5321
▁boys	-10.5322
▁Thạch	-10.5327
▁Ford	-10.5328
▁none	-10.533
▁đạn	-10.5341
▁ENG	-10.5341
da	-10.5342
▁giấu	-10.5344
▁promise	-10.5346
▁Lần	-10.5349
▁Chân	-10.536
▁trân	-10.5362
▁Huỳnh	-10.5371
▁afternoon	-10.5377
▁lying	-10.5382
▁vả	-10.5385
▁written	-10.5388
▁based	-10.5392
▁Link	-10.5397
▁quét	-10.5401
▁powerful	-10.5406
▁crazy	-10.5427
▁đầm	-10.5436
▁forget	-10.5439
▁Black	-10.544
▁Tu	-10.5444
▁tiêm	-10.5454
X	-10.5455
▁spirit	-10.5458
▁lose	-10.5459
▁dressed	-10.5462
▁rang	-10.5467
▁đẻ	-10.5467
▁search	-10.5471
▁aware	-10.5481
▁nor	-10.5482
▁Group	-10.5494
▁paused	-10.5495
▁nề	-10.5497
▁Lãnh	-10.5505
▁nhũng	-10.5505
▁nho	-10.5507
▁vắng	-10.5513
▁mp	-10.5515
▁chả	-10.5515
▁lính	-10.5516
▁Ha	-10.5517
▁Greek	-10.5524
▁nâu	-10.5529
▁sưu	-10.5529
▁hoped	-10.5544
▁tight	-10.5546
▁Siêu	-10.5548
▁lõi	-10.5551
▁Đặng	-10.5551
▁doctor	-10.5552
▁mét	-10.5563
▁lồng	-10.557
▁apartment	-10.5574
▁ears	-10.5585
▁clip	-10.559
▁Vấn	-10.5598
▁marketing	-10.561
▁weight	-10.5611
▁Vinhomes	-10.5611
▁security	-10.5616
▁à	-10.5619
▁Viettel	-10.5621
▁contact	-10.565
▁Kiên	-10.5651
▁double	-10.5653
▁involved	-10.5653
▁đồn	-10.5656
▁Bảng	-10.5658
▁khoác	-10.566
▁Mạnh	-10.5661
▁members	-10.5662
▁ti	-10.5663
▁SEO	-10.5665
▁BIO	-10.5667
▁mắm	-10.5668
▁vách	-10.5674
▁lights	-10.5676
▁Bo	-10.5679
▁Intonation	-10.5684
▁chiêu	-10.5687
▁khôn	-10.5695
▁list	-10.5712
▁carefully	-10.5716
▁somehow	-10.5717
▁Nguyệt	-10.5719
▁Top	-10.5722
▁date	-10.5729
▁Kích	-10.5751
▁leg	-10.5751
▁r	-10.5752
▁cua	-10.5762
▁sweet	-10.577
▁bỗng	-10.5774
▁Hằng	-10.5776
▁dạo	-10.5782
▁common	-10.5784
R	-10.5789
▁Get	-10.5791
▁Sĩ	-10.5798
▁CT	-10.5798
▁gold	-10.5803
▁pressed	-10.5804
▁heat	-10.5806
▁nhăn	-10.5808
▁vĩnh	-10.5809
ment	-10.5819
▁desire	-10.582
▁cup	-10.582
▁truly	-10.582
▁Tú	-10.5821
▁Sun	-10.5822
▁listen	-10.5824
▁BĐS	-10.5828
▁dragon	-10.5833
▁evidence	-10.5834
▁older	-10.5839
▁flesh	-10.5839
▁hoping	-10.584
▁Spirit	-10.584
▁bus	-10.5842
▁offer	-10.5857
▁keeping	-10.5857
▁seven	-10.5862
▁speed	-10.587
▁hao	-10.5871
▁chén	-10.5871
▁axit	-10.5874
▁Love	-10.5878
▁forest	-10.5881
▁ham	-10.5883
▁pulling	-10.5893
land	-10.5897
▁interest	-10.5899
▁calm	-10.5901
▁Sarah	-10.5903
▁thổi	-10.5908
▁Co	-10.5918
▁côn	-10.5921
▁kh	-10.5935
▁ring	-10.5941
▁Cửu	-10.5945
▁Thiện	-10.5949
▁vs	-10.5954
▁Vô	-10.5957
▁qui	-10.5957
▁gam	-10.5957
▁nhầm	-10.5959
▁khoăn	-10.5965
▁Tỷ	-10.5967
▁móng	-10.5968
▁speaking	-10.5969
▁People	-10.5973
▁cross	-10.5976
▁Something	-10.5977
▁forever	-10.5977
▁Ăn	-10.5978
▁se	-10.5978
▁driver	-10.5979
▁ABCDEFGH	-10.598
▁Thanks	-10.5991
▁ốp	-10.5997
▁stupid	-10.6
▁service	-10.6002
▁natural	-10.6003
▁Green	-10.6004
▁Jake	-10.6005
▁Vận	-10.6011
▁planet	-10.6018
▁directly	-10.6019
▁cám	-10.6019
▁familiar	-10.6021
▁bốc	-10.6034
▁lie	-10.6037
▁hide	-10.6039
▁hãi	-10.6047
▁Right	-10.6053
▁nhan	-10.606
▁Thăng	-10.606
▁Time	-10.6063
▁Captain	-10.6067
▁đồi	-10.607
▁White	-10.6071
▁Vừa	-10.6072
▁focus	-10.6073
▁Cà	-10.6079
▁married	-10.6085
▁Chắc	-10.6086
▁FPT	-10.6087
▁sir	-10.609
▁Đọc	-10.6101
▁drove	-10.6106
▁sick	-10.611
W	-10.6115
▁knees	-10.6117
▁color	-10.613
▁nhắm	-10.6149
▁Honda	-10.6153
▁điên	-10.6158
▁talked	-10.6159
▁tongue	-10.6164
la	-10.6166
▁Mộc	-10.6167
▁English	-10.6172
▁Kỷ	-10.6178
▁purpose	-10.6179
▁lây	-10.618
▁thoái	-10.6196
▁fucking	-10.62
▁Tre	-10.6201
▁Every	-10.6218
▁Phố	-10.6222
▁Mi	-10.623
▁MV	-10.6235
▁xay	-10.6237
▁Passed	-10.6237
▁Ah	-10.6241
▁phổi	-10.6242
▁Still	-10.6245
▁smiling	-10.6248
▁moments	-10.6248
▁lứa	-10.625
▁touched	-10.626
▁bodies	-10.6262
▁social	-10.6272
▁Red	-10.628
▁growing	-10.6281
▁đâm	-10.6281
▁problems	-10.6282
▁expect	-10.6287
▁mí	-10.6291
▁wrapped	-10.6293
▁Quyền	-10.6295
▁nát	-10.6296
▁trip	-10.6296
▁beat	-10.6297
▁Dragon	-10.6298
▁lầu	-10.6303
▁Sách	-10.6306
▁write	-10.6306
▁sẹo	-10.6307
▁sương	-10.631
▁busy	-10.6311
▁hận	-10.6313
▁built	-10.6316
▁paid	-10.632
▁Chào	-10.6322
▁quát	-10.6325
▁thank	-10.633
▁writing	-10.6337
▁Maria	-10.6337
▁lân	-10.634
▁realize	-10.6341
▁đớn	-10.6344
▁handle	-10.6345
ian	-10.636
▁nắp	-10.6365
▁surface	-10.637
▁fit	-10.6371
▁Đặt	-10.6372
▁khoai	-10.6374
▁vươn	-10.6379
▁starting	-10.6379
▁nhị	-10.638
▁Ty	-10.638
▁events	-10.6383
▁phẳng	-10.6387
▁Day	-10.6388
▁Sir	-10.639
▁Trái	-10.64
▁sâm	-10.6404
▁Thomas	-10.6407
▁imagine	-10.6412
▁buy	-10.6422
▁Christian	-10.6425
▁phanh	-10.6428
▁effect	-10.643
▁lăn	-10.6431
ry	-10.6435
▁BTC	-10.6442
▁ended	-10.6442
▁lung	-10.6442
▁Thuốc	-10.6445
▁protect	-10.6446
▁Thổ	-10.6449
▁Tùng	-10.645
▁kid	-10.6451
▁mũ	-10.647
▁Vàng	-10.6472
▁mổ	-10.6475
▁giọt	-10.6476
▁Henry	-10.6481
▁wore	-10.6487
▁truck	-10.649
▁Lam	-10.65
▁tuyết	-10.6512
▁locked	-10.6515
▁hidden	-10.6519
▁gánh	-10.6521
▁rà	-10.6528
▁whose	-10.653
▁Cẩm	-10.6533
▁tao	-10.6539
▁slid	-10.6549
▁South	-10.6549
▁humans	-10.655
▁Phượng	-10.6555
▁Chú	-10.6556
▁turns	-10.656
▁rain	-10.656
▁ngoái	-10.6561
▁Chứng	-10.657
▁fresh	-10.657
▁keo	-10.6571
▁băn	-10.6578
▁nhức	-10.6582
▁spread	-10.6582
▁due	-10.6583
▁lỡ	-10.6588
▁Bị	-10.6589
▁eventually	-10.6589
▁worth	-10.6589
▁luân	-10.6593
▁Riêng	-10.6599
▁gũi	-10.66
▁drop	-10.6602
▁asks	-10.6603
▁quyển	-10.6608
▁lines	-10.6615
▁hate	-10.6621
▁nương	-10.6621
▁store	-10.6625
▁vất	-10.663
▁thin	-10.6631
▁logo	-10.6635
▁smoke	-10.6649
▁spend	-10.6652
▁Nằm	-10.6657
▁Cá	-10.6658
▁Kính	-10.6662
▁grin	-10.6663
▁lợn	-10.6665
▁rỉ	-10.6665
▁Hỗ	-10.6666
▁necessary	-10.6667
▁đun	-10.6677
▁nhược	-10.6682
▁Son	-10.6682
▁taxi	-10.6687
▁flash	-10.6695
▁Tương	-10.6698
▁khôi	-10.6707
▁CN	-10.6711
▁Truyện	-10.6711
▁health	-10.6723
▁apart	-10.6724
▁weapons	-10.6724
▁lùi	-10.6724
▁fighting	-10.6725
▁thousand	-10.6731
▁usual	-10.6733
▁stories	-10.6738
▁Chia	-10.6742
men	-10.6744
▁shock	-10.6747
▁THE	-10.6751
▁lit	-10.6752
▁nhang	-10.6752
▁stayed	-10.6755
▁West	-10.6756
▁windows	-10.6767
▁subject	-10.6769
▁caused	-10.6772
▁cheek	-10.6775
▁Quả	-10.6775
▁Robert	-10.6782
▁vision	-10.6792
▁Tối	-10.6793
▁lưỡng	-10.6794
▁Nhơn	-10.681
▁hospital	-10.6816
▁shaking	-10.6816
is	-10.6816
▁Washington	-10.6821
▁khoe	-10.6823
▁believed	-10.6829
▁received	-10.6829
▁lấp	-10.6829
▁similar	-10.683
▁buông	-10.6839
▁Ô	-10.6841
▁Toyota	-10.6842
▁Miền	-10.6845
▁Cố	-10.6847
▁decision	-10.6851
▁opening	-10.6855
▁nhã	-10.6857
▁entrance	-10.6859
▁facebook	-10.6864
▁various	-10.6871
▁Another	-10.6873
▁lắc	-10.6874
▁dắt	-10.6875
▁join	-10.6879
▁feelings	-10.6883
▁stuck	-10.6887
▁Shop	-10.6897
▁dear	-10.6899
▁dò	-10.69
▁Syria	-10.6906
▁MP	-10.6907
w	-10.6911
▁enemy	-10.6916
▁missing	-10.6921
▁gìn	-10.6922
▁tụng	-10.6931
▁happening	-10.6931
▁Thậm	-10.6933
▁bathroom	-10.6934
▁Hyundai	-10.6943
▁gián	-10.6946
▁yelled	-10.6948
▁cõi	-10.6953
▁ASEAN	-10.6956
▁ride	-10.696
▁El	-10.6964
▁laughing	-10.6976
at	-10.6979
▁Đánh	-10.6979
▁Môn	-10.6982
▁óc	-10.6982
▁Ánh	-10.6982
▁Đúng	-10.6986
▁Great	-10.6987
▁series	-10.6995
▁Chưa	-10.6996
▁Thẩm	-10.6998
▁mộc	-10.7002
▁Australia	-10.7009
▁Garden	-10.7014
▁California	-10.7019
▁played	-10.7026
▁chuối	-10.7027
▁understanding	-10.7029
▁ngào	-10.7031
▁cat	-10.7037
▁Bill	-10.705
▁Rome	-10.7058
▁vướng	-10.7063
▁river	-10.7064
▁Cấp	-10.7064
▁approached	-10.7065
▁Quán	-10.7068
▁America	-10.7075
▁Steve	-10.7077
ting	-10.7078
▁Philippines	-10.7079
▁cry	-10.7081
▁li	-10.7087
▁crossed	-10.7089
▁Đôi	-10.709
▁dưa	-10.7094
▁falling	-10.7096
▁stress	-10.7097
▁Camera	-10.7104
▁lạm	-10.7106
▁Since	-10.7106
▁hưu	-10.7106
▁laid	-10.7115
▁PHY	-10.7115
▁kèo	-10.7117
▁god	-10.712
▁Hán	-10.7122
▁lunch	-10.7123
▁trọ	-10.7127
▁frowned	-10.7135
▁High	-10.7136
▁understood	-10.7138
▁tùng	-10.714
▁Hiền	-10.7142
▁tớ	-10.7144
▁chẩn	-10.7147
▁whom	-10.7149
▁Holy	-10.715
▁diệu	-10.7152
ine	-10.7154
▁Indonesia	-10.7159
▁Everyone	-10.716
▁họng	-10.7161
▁ao	-10.7172
▁cried	-10.7179
▁risk	-10.7182
▁Tell	-10.7183
▁bom	-10.7188
▁BHXH	-10.7195
▁calling	-10.7196
▁nại	-10.7198
▁works	-10.7198
▁Xanh	-10.7198
▁Although	-10.7204
▁sút	-10.7211
▁fully	-10.7215
▁Kiếm	-10.7215
▁accept	-10.7216
▁result	-10.7221
▁forth	-10.7228
▁station	-10.7231
▁Ứng	-10.7237
ies	-10.7239
▁sharp	-10.7241
▁snow	-10.7243
▁particular	-10.7256
▁dance	-10.7257
▁knife	-10.726
▁Note	-10.7261
▁ớt	-10.7267
▁ball	-10.7279
J	-10.728
▁code	-10.728
▁disappeared	-10.7281
▁pháo	-10.7282
▁Trinh	-10.7288
▁private	-10.7291
▁Lộ	-10.7297
▁hiếu	-10.7297
▁hiền	-10.7301
▁month	-10.7313
▁Chợ	-10.7314
▁PC	-10.7315
▁hòn	-10.7316
▁flat	-10.7317
▁Ancient	-10.7318
▁higher	-10.7329
▁hoại	-10.7346
▁putting	-10.7348
▁nang	-10.7349
▁hở	-10.7366
▁HĐND	-10.7368
▁thịnh	-10.737
▁Màn	-10.7371
▁xá	-10.7372
▁lặp	-10.7373
▁hole	-10.7381
▁vạch	-10.7382
ro	-10.7388
▁xoa	-10.7389
▁Tạo	-10.7389
▁đùa	-10.7392
▁Bây	-10.7393
▁indeed	-10.7394
▁training	-10.7395
▁suppose	-10.7396
▁soldiers	-10.7401
▁Tháp	-10.7402
▁tiệm	-10.7402
▁ghét	-10.7404
▁chè	-10.7406
▁opportunity	-10.7406
▁chiêm	-10.7411
▁Sức	-10.7411
▁See	-10.7417
▁ability	-10.7423
▁Tín	-10.7423
▁prepared	-10.7429
▁Helen	-10.7437
▁Yet	-10.7444
▁drew	-10.7445
Z	-10.7447
▁Instead	-10.7449
▁Tông	-10.7453
▁dập	-10.7456
▁block	-10.7458
▁bỏng	-10.7462
▁gonna	-10.7465
▁lộn	-10.7466
▁ráp	-10.7467
▁creature	-10.7471
▁Lập	-10.7479
▁Chức	-10.7481
▁Vật	-10.7487
▁quỷ	-10.749
▁dai	-10.749
▁War	-10.7494
▁Tần	-10.7495
▁rộn	-10.7497
▁letter	-10.7499
▁Gabriel	-10.7499
▁miss	-10.7507
▁gã	-10.7508
▁Bay	-10.7509
▁dry	-10.751
▁Big	-10.7512
▁Save	-10.752
▁Tuyết	-10.752
▁slipped	-10.7522
▁pleasure	-10.7526
▁Finally	-10.7532
▁event	-10.7532
▁Would	-10.7537
▁ưng	-10.7538
▁cai	-10.7541
▁asleep	-10.7547
▁Chuyện	-10.7552
▁tea	-10.7559
▁suit	-10.756
▁Hãng	-10.7568
▁weapon	-10.757
▁finding	-10.7577
▁Đàn	-10.758
▁Dòng	-10.7581
▁dangerous	-10.7584
▁noise	-10.7585
▁rụng	-10.7585
▁staff	-10.7592
▁Chế	-10.7593
ate	-10.7594
▁fuck	-10.7599
▁opposite	-10.7599
▁Charlie	-10.7599
▁grass	-10.76
▁âu	-10.7603
▁carry	-10.7608
▁lùng	-10.7609
▁gotten	-10.7616
▁bú	-10.7624
▁select	-10.7625
▁pre	-10.7625
▁sin	-10.7626
▁CH	-10.7626
▁trăng	-10.7631
▁dốc	-10.7635
▁boat	-10.7637
▁ass	-10.7637
▁eight	-10.7653
▁male	-10.7655
▁Nàng	-10.7657
▁students	-10.7663
▁aside	-10.7672
▁gay	-10.7676
▁push	-10.7687
▁rèm	-10.7687
▁Life	-10.7687
▁xà	-10.7688
▁Muốn	-10.7692
ar	-10.7696
▁sét	-10.7697
▁damn	-10.7698
▁avoid	-10.77
▁chip	-10.77
▁lower	-10.7703
▁thoảng	-10.7706
▁mài	-10.7709
▁III	-10.7725
▁rich	-10.7725
▁copy	-10.7726
▁rốt	-10.7732
▁silver	-10.7735
▁counter	-10.7739
▁Phùng	-10.7748
▁Bé	-10.7757
▁bong	-10.7759
▁enjoy	-10.7765
▁chap	-10.7766
▁đằng	-10.7768
▁scene	-10.7768
▁đắn	-10.7777
▁tỏi	-10.7779
▁nguyệt	-10.778
▁Ly	-10.7781
▁đặn	-10.7783
▁dãy	-10.7784
li	-10.7785
▁major	-10.7789
▁Viêm	-10.7791
▁Japan	-10.7798
▁ngoan	-10.7816
▁tê	-10.7819
▁female	-10.7819
▁thun	-10.7822
▁impossible	-10.7822
▁Điền	-10.7823
▁Quá	-10.7825
▁CTZ	-10.7827
▁hoài	-10.7828
ka	-10.783
▁wake	-10.7838
▁Anna	-10.7843
▁create	-10.785
▁journey	-10.7852
▁Am	-10.7853
▁military	-10.7855
▁yết	-10.787
▁thirty	-10.7873
▁thoa	-10.7878
▁stage	-10.7888
▁heads	-10.7894
▁Beats	-10.7902
▁măng	-10.7904
▁chênh	-10.7905
▁Xuyên	-10.7914
▁grinned	-10.7915
▁Tủ	-10.7925
▁breathing	-10.7929
▁Un	-10.7934
▁nghiêng	-10.7941
▁obvious	-10.7944
▁guards	-10.7947
▁léo	-10.7948
▁Nghiệp	-10.7953
▁ruộng	-10.7958
▁missed	-10.7958
▁lậu	-10.7959
▁ice	-10.7964
▁faces	-10.7965
um	-10.7967
▁Lăng	-10.797
▁Everything	-10.7971
▁ngứa	-10.7971
▁ngợi	-10.7972
▁general	-10.7979
▁thuẫn	-10.7983
▁hallway	-10.7987
▁CD	-10.7987
▁ấp	-10.7988
▁wet	-10.7989
▁Lee	-10.7992
▁grow	-10.7996
▁Tải	-10.7999
▁wood	-10.8014
▁khép	-10.8015
▁language	-10.8015
▁style	-10.8015
▁dreams	-10.8016
▁Th	-10.8021
▁leading	-10.8022
▁tưới	-10.8022
▁cast	-10.8028
▁master	-10.8029
▁train	-10.8029
▁Lại	-10.803
▁cuộn	-10.8035
▁ourselves	-10.8046
▁Khoảng	-10.805
▁wild	-10.8054
▁sưng	-10.806
▁kiếp	-10.8066
▁mèo	-10.8067
▁per	-10.8067
▁definitely	-10.8072
▁chợt	-10.8072
▁Phủ	-10.8074
▁author	-10.808
▁Ga	-10.8082
▁Bible	-10.809
▁Book	-10.8095
▁lường	-10.8097
▁effort	-10.8098
▁willing	-10.8098
▁current	-10.8098
▁tivi	-10.8104
▁animal	-10.8106
▁cắn	-10.8109
▁Nick	-10.8114
▁gai	-10.8117
▁lọt	-10.8118
▁happens	-10.8119
▁bottle	-10.8121
▁Khai	-10.8123
▁chư	-10.8125
▁nảy	-10.8125
▁chapter	-10.8126
▁HP	-10.8129
▁ordered	-10.8132
▁animals	-10.8132
▁Land	-10.8138
▁hưng	-10.8139
▁travel	-10.8143
▁heaven	-10.8145
▁removed	-10.8146
▁wondering	-10.8147
▁tám	-10.8152
▁Mười	-10.8153
▁acid	-10.8153
▁giang	-10.8159
▁ngụ	-10.816
▁kỉ	-10.8166
▁scared	-10.8169
▁Le	-10.817
▁clock	-10.8171
▁wonderful	-10.8171
▁existence	-10.8172
▁mạ	-10.8175
▁sudden	-10.8175
ya	-10.8175
▁củng	-10.8177
▁remain	-10.8185
▁enter	-10.8186
▁softly	-10.8194
do	-10.8194
▁attempt	-10.8212
▁Tranh	-10.8214
▁confused	-10.8216
▁Chuyển	-10.8217
▁Cai	-10.8225
▁despite	-10.8226
ion	-10.8228
▁plans	-10.8229
▁mặn	-10.8229
▁Bá	-10.8231
▁mirror	-10.824
▁Master	-10.824
▁Many	-10.8247
▁screamed	-10.8247
▁spiritual	-10.8248
▁Tuổi	-10.8248
▁fly	-10.8248
▁Bếp	-10.8253
▁page	-10.8258
▁bùng	-10.8263
▁Đắk	-10.8264
▁hanging	-10.8268
▁Nhóm	-10.8271
▁forehead	-10.8272
▁obviously	-10.8273
▁sleeping	-10.8283
▁settled	-10.8291
▁interesting	-10.8295
▁eating	-10.8295
▁Elizabeth	-10.8296
▁amount	-10.8298
▁gốm	-10.8299
▁uốn	-10.8312
st	-10.8319
▁gives	-10.8323
▁million	-10.8325
▁chay	-10.8331
▁Old	-10.8335
▁sỉ	-10.8337
▁lack	-10.8338
▁Daniel	-10.834
▁GS	-10.8342
▁neither	-10.8342
▁park	-10.8357
▁ngần	-10.8362
▁Iran	-10.8363
▁lấn	-10.8365
▁trắc	-10.8365
▁Campuchia	-10.8372
▁art	-10.8377
▁đc	-10.8379
▁concerned	-10.8379
▁society	-10.8379
▁Phiên	-10.838
▁Web	-10.8383
▁Take	-10.8406
▁Tế	-10.8408
▁Thừa	-10.841
▁bai	-10.8413
▁Sorry	-10.8416
▁comment	-10.8419
▁mượn	-10.8424
▁Jim	-10.8424
▁Viet	-10.8428
▁bóp	-10.8429
▁vây	-10.843
▁report	-10.843
▁lật	-10.8432
▁chuông	-10.8432
▁consider	-10.8433
▁mg	-10.844
▁ngưng	-10.8444
▁Đá	-10.8445
▁available	-10.8447
▁finish	-10.8448
▁vòi	-10.845
▁vóc	-10.8457
▁Lượng	-10.846
▁nhỉ	-10.8461
▁Joe	-10.8463
▁School	-10.8463
▁yellow	-10.8465
▁tịnh	-10.8466
▁en	-10.847
▁Brian	-10.8477
▁Tri	-10.848
▁Thúy	-10.8484
▁Blue	-10.8487
▁Website	-10.8488
▁figured	-10.8492
▁Each	-10.8496
▁hái	-10.85
▁base	-10.8503
▁snapped	-10.8505
▁lê	-10.8508
▁rắc	-10.851
▁ngư	-10.8513
▁giàn	-10.8513
▁leaves	-10.8514
▁fair	-10.8522
▁dối	-10.8527
▁tre	-10.8528
▁cồn	-10.8529
▁wooden	-10.853
▁pieces	-10.8537
▁ném	-10.8541
▁hearing	-10.8544
ter	-10.8544
▁Quỹ	-10.8551
▁Hàm	-10.8551
▁triết	-10.8554
▁Ưu	-10.8565
▁joined	-10.8568
▁movement	-10.8575
▁bội	-10.8579
▁TH	-10.858
▁dồi	-10.8584
▁board	-10.859
▁miles	-10.859
▁mò	-10.8591
▁Đế	-10.8593
▁cuồng	-10.8594
▁letting	-10.8594
▁điền	-10.8602
▁tells	-10.8606
▁Ngôi	-10.8608
▁site	-10.8609
▁Đảo	-10.8611
▁becoming	-10.862
▁lũy	-10.8623
me	-10.8626
▁Rose	-10.8632
no	-10.8635
▁Read	-10.8637
▁buồng	-10.8637
ne	-10.8638
▁radio	-10.8638
▁relief	-10.864
▁Bát	-10.8644
▁Frank	-10.8645
▁Năng	-10.8646
▁Both	-10.8664
▁shouldn	-10.867
▁muôn	-10.8672
▁Ch	-10.8673
▁interested	-10.8676
▁khử	-10.8677
▁sáp	-10.8679
▁Lệ	-10.868
▁Mức	-10.8684
▁Hiếu	-10.8684
▁listening	-10.8685
▁xào	-10.8688
▁Vua	-10.8693
▁mượt	-10.8697
▁research	-10.8702
▁mission	-10.8702
▁Tốt	-10.8707
▁Van	-10.8709
▁joy	-10.8709
▁viền	-10.8714
▁ph	-10.8715
▁Yến	-10.8717
▁waved	-10.8718
▁role	-10.8724
▁couch	-10.8726
▁practice	-10.8727
▁Thất	-10.8728
▁pack	-10.873
▁Kate	-10.8733
▁Trình	-10.8735
▁Diệp	-10.8736
ca	-10.8742
▁emotions	-10.8754
▁fallen	-10.8772
▁village	-10.8775
▁Nhằm	-10.8783
▁gi	-10.8784
▁tumor	-10.8785
▁Pa	-10.8793
▁appear	-10.8794
▁breakfast	-10.8796
▁sad	-10.8805
▁Hắn	-10.8805
▁Simon	-10.8811
▁Bạc	-10.8813
▁command	-10.8817
▁moon	-10.8819
▁cưỡng	-10.882
▁gate	-10.8828
▁media	-10.8835
▁suối	-10.8838
▁lướt	-10.8842
▁thèm	-10.8843
▁cắp	-10.8851
▁cabin	-10.8863
▁Bóng	-10.8868
▁ni	-10.8871
▁mãnh	-10.8877
▁Cập	-10.8878
▁Microsoft	-10.8878
▁Thức	-10.889
▁responded	-10.889
▁fish	-10.8894
▁Phù	-10.8895
▁chin	-10.8898
▁sốc	-10.8898
▁nốt	-10.8899
line	-10.8904
▁careful	-10.8904
▁Tạp	-10.8908
▁summer	-10.891
▁wine	-10.8914
▁Lực	-10.892
▁comfortable	-10.892
▁gift	-10.8928
▁provide	-10.893
▁ye	-10.893
▁wave	-10.8931
▁bấy	-10.8933
▁leader	-10.8938
▁cành	-10.894
▁THCS	-10.8942
▁bơ	-10.8947
▁nghịch	-10.895
▁nứt	-10.8955
▁cự	-10.8956
▁Tường	-10.8958
▁flying	-10.8959
▁Though	-10.8963
▁Hotline	-10.897
▁throw	-10.897
▁checked	-10.8976
▁mad	-10.8976
▁discovered	-10.8976
▁xám	-10.898
▁burning	-10.8987
▁glance	-10.8988
▁Mau	-10.8996
▁mins	-10.9007
▁wear	-10.9007
▁agree	-10.9011
▁unless	-10.9014
▁sides	-10.9015
▁meaning	-10.9016
▁mentioned	-10.9019
▁cu	-10.9019
▁saved	-10.902
▁odd	-10.9023
▁army	-10.9026
▁Đạt	-10.9028
ized	-10.9031
▁build	-10.9032
▁possibly	-10.9038
▁rồng	-10.9038
▁mess	-10.9039
▁mail	-10.9043
▁driving	-10.9046
▁rễ	-10.9056
▁luồng	-10.9057
▁Khóa	-10.9058
age	-10.9061
▁machine	-10.9061
▁ceiling	-10.9075
▁Luke	-10.9075
▁Su	-10.9076
▁notes	-10.9077
▁blog	-10.9078
▁throughout	-10.9086
▁trinh	-10.9094
▁dẻo	-10.9102
▁xổ	-10.9106
▁loss	-10.9115
▁mostly	-10.9116
con	-10.9119
▁naked	-10.912
▁decide	-10.9122
il	-10.9124
▁individual	-10.9133
▁Without	-10.9142
▁Bố	-10.9143
▁đành	-10.9143
▁access	-10.9151
▁pale	-10.9153
▁difference	-10.9155
led	-10.9157
▁Sông	-10.9158
▁camp	-10.9166
▁Kitô	-10.9174
▁thanks	-10.9175
▁IP	-10.9177
▁Hell	-10.9182
▁Lấy	-10.9185
▁stare	-10.9186
▁dải	-10.9187
▁bear	-10.9187
▁Vạn	-10.9191
▁thưa	-10.9191
▁thỉnh	-10.9192
▁extra	-10.9197
▁Word	-10.9198
▁US	-10.92
▁crew	-10.9203
▁garden	-10.9205
▁ngột	-10.9207
▁đắng	-10.9208
▁Biệt	-10.9212
▁Giúp	-10.9212
▁Cứ	-10.9217
▁collagen	-10.9221
▁nhục	-10.9222
ally	-10.9224
▁memories	-10.9231
▁unable	-10.9238
▁beauty	-10.9239
▁track	-10.9239
▁Danny	-10.9241
▁mâu	-10.9241
▁hotel	-10.9253
▁MT	-10.9256
▁News	-10.9257
▁Jacob	-10.9261
▁community	-10.9265
▁consciousness	-10.9274
▁dồn	-10.9278
ty	-10.9287
Đ	-10.9291
▁Huệ	-10.9294
▁actions	-10.9297
▁le	-10.9298
▁Món	-10.9306
▁pro	-10.9316
▁Marketing	-10.9318
▁wrote	-10.9321
▁source	-10.9322
▁nôn	-10.9324
▁weak	-10.9326
▁đới	-10.9329
▁lui	-10.933
▁totally	-10.9336
▁xích	-10.934
▁previous	-10.9343
▁divisible	-10.9359
▁Full	-10.9363
▁kbps	-10.9367
▁vu	-10.9368
▁blade	-10.9369
▁Sara	-10.937
▁target	-10.9375
▁flew	-10.9379
▁múa	-10.9388
▁canxi	-10.939
▁Liêm	-10.939
▁SN	-10.9392
▁tap	-10.9401
▁charge	-10.9402
▁dirt	-10.9404
▁William	-10.9405
▁China	-10.9412
▁anywhere	-10.9413
▁đạm	-10.9415
▁Kể	-10.9416
▁beer	-10.9418
▁value	-10.9418
▁star	-10.9422
▁General	-10.943
▁shower	-10.943
▁Ngũ	-10.9435
ish	-10.9436
▁respect	-10.9442
▁released	-10.9444
▁Post	-10.9448
▁cọc	-10.9449
▁nhở	-10.9451
▁jeans	-10.9451
▁title	-10.9452
ful	-10.9453
▁stick	-10.9453
▁Điển	-10.9453
▁manh	-10.9454
▁thám	-10.9455
ted	-10.9459
▁court	-10.9459
▁parts	-10.946
▁chìa	-10.9462
▁bet	-10.9463
▁approach	-10.9463
▁blow	-10.9463
▁shoes	-10.9467
▁Cậu	-10.9468
▁length	-10.9472
▁Giai	-10.9477
▁Grand	-10.9481
▁Bánh	-10.9485
▁Eric	-10.9486
▁Li	-10.9486
▁ôtô	-10.9489
▁smart	-10.9493
▁Emma	-10.9509
▁Power	-10.951
▁Sky	-10.9512
▁Mời	-10.9519
▁names	-10.9521
▁circle	-10.9522
▁mỏ	-10.9526
▁đính	-10.953
▁tà	-10.9531
▁taught	-10.9531
▁Tuần	-10.9535
▁danger	-10.954
▁Mother	-10.9541
▁OK	-10.9543
▁terrible	-10.9553
▁college	-10.9554
▁Queen	-10.9555
▁khiết	-10.9561
▁Kem	-10.9565
▁forgotten	-10.9567
▁lip	-10.957
▁cheeks	-10.9575
▁dũng	-10.9576
ông	-10.9581
▁suggested	-10.9582
▁thìa	-10.9583
▁choose	-10.9585
▁Church	-10.959
▁crying	-10.959
▁rise	-10.959
ri	-10.9592
▁concern	-10.9592
▁term	-10.9593
▁admit	-10.9593
▁failed	-10.9597
▁na	-10.9598
▁shape	-10.96
▁chặng	-10.9602
▁grip	-10.9613
▁Jason	-10.9613
▁LG	-10.9618
▁Tags	-10.9627
▁dại	-10.9629
▁scream	-10.9635
▁Download	-10.9641
▁dust	-10.9642
▁struck	-10.9642
▁climbed	-10.9645
▁Three	-10.9648
▁kép	-10.9653
▁dệt	-10.9659
▁tphcm	-10.9665
▁ngu	-10.9665
▁rạng	-10.9676
▁political	-10.9677
▁lanh	-10.9677
▁details	-10.9677
▁heading	-10.9678
▁feels	-10.9684
▁leather	-10.9685
▁vở	-10.9691
▁burst	-10.9692
▁nearby	-10.9695
▁Buổi	-10.9696
▁potential	-10.9699
▁Tuyển	-10.97
▁Ka	-10.9703
▁Đan	-10.9707
▁anti	-10.9709
▁kiêng	-10.9709
▁bỉ	-10.9713
▁Thiền	-10.9715
▁eo	-10.9715
▁Vệ	-10.9717
▁ya	-10.9721
▁đếm	-10.9723
▁member	-10.9726
▁Hang	-10.9728
▁account	-10.9729
ated	-10.973
▁hardly	-10.9744
▁Ko	-10.9745
▁nervous	-10.9748
▁focused	-10.975
▁shadow	-10.9751
▁officer	-10.9753
▁đinh	-10.9753
▁named	-10.9754
▁đụng	-10.9755
▁pointing	-10.9755
▁killing	-10.9765
▁CS	-10.9769
▁gray	-10.977
▁gathered	-10.9772
▁Bách	-10.9777
▁hụt	-10.978
▁cháo	-10.979
▁Media	-10.9793
▁Donald	-10.9794
▁Nhu	-10.9797
▁cởi	-10.9798
▁birth	-10.9802
▁Sáu	-10.9802
▁bank	-10.9813
▁beach	-10.9814
▁manner	-10.9825
▁grab	-10.9825
▁Khởi	-10.9829
▁tản	-10.9841
▁khoảnh	-10.9841
▁ideas	-10.9843
▁race	-10.9843
▁bế	-10.9848
▁hạch	-10.9848
▁Diệu	-10.9853
▁laser	-10.9854
▁Bob	-10.9864
▁Sometimes	-10.9864
▁luck	-10.9875
▁sigh	-10.9877
▁Nghi	-10.9879
▁gừng	-10.9879
▁lock	-10.9884
▁ngự	-10.9888
▁passing	-10.9888
▁price	-10.9892
▁mention	-10.9899
▁Ho	-10.99
▁đục	-10.9906
▁mountain	-10.9911
▁taste	-10.9912
▁seo	-10.9916
▁Dạ	-10.992
▁States	-10.992
▁changes	-10.9929
▁xưng	-10.993
▁Never	-10.9932
▁VNĐ	-10.9932
▁xăm	-10.9934
▁ngô	-10.9939
▁cạn	-10.994
▁Viết	-10.9946
▁Chelsea	-10.9948
▁Grace	-10.9949
▁stars	-10.9951
▁hiding	-10.9955
▁EU	-10.9961
▁shake	-10.9962
▁gãy	-10.9963
▁khoang	-10.9965
▁gõ	-10.9969
▁ex	-10.9969
▁đùi	-10.9969
▁Liệu	-10.9972
▁reminded	-10.9976
▁task	-10.9976
▁Khí	-10.9976
▁PV	-10.9977
▁VTV	-10.9978
▁xí	-10.9979
▁hotline	-10.9983
▁rệt	-10.9988
▁Tướng	-10.9989
đ	-10.999
▁wished	-10.9991
▁Triển	-10.9995
▁showing	-11
▁Hoạt	-11.0006
▁Richard	-11.001
▁Khả	-11.0012
▁Chris	-11.0013
▁hoành	-11.0015
▁Chùa	-11.0017
di	-11.0018
▁calls	-11.0018
▁Mậu	-11.0028
▁add	-11.003
▁fought	-11.0032
▁Center	-11.0032
▁Xô	-11.0033
▁results	-11.0038
▁Khác	-11.004
▁Over	-11.0044
▁prayer	-11.0051
▁lucky	-11.0052
▁MC	-11.0057
▁jump	-11.0057
▁sand	-11.0062
▁trừng	-11.0064
▁Tứ	-11.0065
▁nghiện	-11.0067
os	-11.0068
▁shared	-11.0068
▁xước	-11.007
▁Biết	-11.0078
▁Lady	-11.0079
▁promised	-11.0081
▁CHE	-11.0091
▁vành	-11.0092
▁cúi	-11.0093
▁wanting	-11.0094
▁bồ	-11.0096
▁đạc	-11.0096
▁answers	-11.0099
▁đứt	-11.0099
▁nod	-11.0107
▁yours	-11.0107
▁Mở	-11.0115
▁bách	-11.012
▁easier	-11.012
▁carrying	-11.0123
▁bought	-11.0127
▁karaoke	-11.0129
▁vuốt	-11.013
it	-11.0133
▁Mac	-11.0135
▁Dan	-11.0138
▁MB	-11.0139
▁Back	-11.0143
▁nọ	-11.0145
▁iPad	-11.0148
▁universe	-11.015
▁xôi	-11.0152
▁Giáp	-11.0154
▁vượng	-11.016
▁MU	-11.0166
▁loose	-11.0167
▁greater	-11.0178
▁band	-11.0179
▁pink	-11.0189
▁dở	-11.019
▁jacket	-11.0192
▁funny	-11.0192
▁ốm	-11.0195
▁gỉ	-11.0198
▁provided	-11.0208
▁·	-11.0208
▁NH	-11.0213
▁Kiểu	-11.0214
▁Tower	-11.0229
▁reply	-11.0235
▁Phục	-11.0245
▁listened	-11.0245
▁Ngãi	-11.0251
▁xót	-11.0252
▁thiêng	-11.0258
▁đọng	-11.0258
▁Saigon	-11.0258
▁required	-11.0259
▁period	-11.0265
▁Besides	-11.027
▁helping	-11.0273
pa	-11.0274
▁Đấng	-11.0278
▁dẹp	-11.0281
▁rẽ	-11.0285
▁ráo	-11.0288
▁tạ	-11.0288
▁market	-11.0294
▁xen	-11.0295
▁About	-11.0298
▁Khối	-11.0298
Q	-11.0303
▁safety	-11.0306
de	-11.0307
▁Ân	-11.0307
▁setting	-11.0311
▁worst	-11.0312
▁Carl	-11.0316
▁Bi	-11.0327
▁plate	-11.0328
▁kiêm	-11.033
▁Martin	-11.0339
▁khơi	-11.0342
em	-11.0345
▁Khê	-11.0349
▁dội	-11.035
▁Lucy	-11.0354
▁Hello	-11.0354
▁drug	-11.0358
▁mobile	-11.0362
▁Thấy	-11.0362
▁coat	-11.0369
▁Khuyến	-11.0371
▁waist	-11.0379
▁material	-11.038
▁Jo	-11.0381
▁gắt	-11.0386
▁treatment	-11.0395
▁chê	-11.0399
▁Bích	-11.0405
▁pants	-11.0405
▁pool	-11.0412
▁Vui	-11.0415
▁lề	-11.0427
ive	-11.0427
▁wound	-11.0429
▁doorway	-11.0432
▁Mobile	-11.0432
▁đan	-11.0433
▁khống	-11.0433
▁development	-11.0434
▁→	-11.0436
▁Gò	-11.0439
▁fix	-11.0439
▁chuckled	-11.0443
ant	-11.0443
▁tỳ	-11.0445
▁Phía	-11.045
▁Christians	-11.0455
▁sườn	-11.0456
▁beast	-11.0466
▁chốn	-11.0466
▁Viễn	-11.0471
▁Mercedes	-11.0471
▁q	-11.0473
▁Madrid	-11.0473
▁tát	-11.0474
▁Whatever	-11.0477
▁bạt	-11.0481
▁laughter	-11.0482
▁ào	-11.0486
▁faster	-11.049
▁flight	-11.0497
▁Ms	-11.0497
▁Charles	-11.0499
▁pressure	-11.05
U	-11.0508
▁Which	-11.0513
▁nhịn	-11.0514
▁Angel	-11.0519
▁waves	-11.052
▁len	-11.0521
▁bã	-11.0525
▁vampire	-11.0525
▁Quần	-11.0528
▁specific	-11.053
▁NO	-11.0531
▁stated	-11.0538
▁content	-11.0542
chi	-11.0551
▁CHAPTER	-11.0555
▁Khang	-11.0559
▁Tai	-11.0559
▁Louis	-11.0561
▁cost	-11.0562
▁CÔNG	-11.0563
▁Could	-11.0564
ba	-11.0569
▁massive	-11.0572
▁success	-11.0577
▁object	-11.0588
▁Trì	-11.0588
▁total	-11.0592
▁rules	-11.0596
▁hated	-11.0598
▁quãng	-11.0599
▁movie	-11.06
▁text	-11.0603
▁mental	-11.0605
▁accepted	-11.0606
▁Sân	-11.0607
▁chửi	-11.0607
▁receive	-11.0609
▁Emily	-11.0609
▁golden	-11.061
▁grown	-11.0612
▁amazing	-11.0612
▁Obama	-11.0615
▁Đêm	-11.0618
▁Next	-11.0618
se	-11.0623
▁Sang	-11.0629
▁Mật	-11.0629
▁landed	-11.0634
▁according	-11.0636
▁Ký	-11.0638
▁Men	-11.0638
▁nhờn	-11.064
ko	-11.0643
▁Lớp	-11.0644
▁Christmas	-11.0647
▁shadows	-11.0649
▁woke	-11.0653
▁xao	-11.0656
▁program	-11.0662
▁hố	-11.0666
ir	-11.0667
▁Trúc	-11.0669
lo	-11.067
▁Brazil	-11.0671
▁exist	-11.0671
▁hò	-11.0673
▁woods	-11.0679
▁spa	-11.0685
▁Hiến	-11.0689
▁revealed	-11.0696
▁religion	-11.0699
▁gạt	-11.0701
▁Tay	-11.0712
▁oil	-11.0713
▁murder	-11.0714
▁issue	-11.0715
▁quầy	-11.0722
▁Trả	-11.0723
lin	-11.0725
▁yến	-11.0727
▁loi	-11.0729
ous	-11.0732
▁Mang	-11.0733
ph	-11.0734
▁planned	-11.0739
▁Super	-11.0742
▁bent	-11.0748
▁bridge	-11.0754
▁Riverside	-11.076
▁Suddenly	-11.0763
▁Wait	-11.0765
▁Mong	-11.0767
▁rushed	-11.0772
▁meal	-11.0774
ul	-11.0775
▁giòn	-11.0781
▁creatures	-11.0789
▁student	-11.0797
▁đắm	-11.0798
▁kheo	-11.0803
▁younger	-11.0806
▁marriage	-11.0807
▁Does	-11.0811
▁giant	-11.0817
▁reasons	-11.0818
▁xoắn	-11.0818
▁Cty	-11.082
▁Scott	-11.0821
▁brief	-11.0823
▁streets	-11.0823
▁faced	-11.0824
▁comfort	-11.0824
▁Email	-11.0828
▁enjoyed	-11.0829
▁cave	-11.0837
ary	-11.0838
▁mỉ	-11.0839
▁nhộn	-11.0842
▁Airlines	-11.0851
▁weird	-11.0853
▁welcome	-11.0855
▁damage	-11.0855
▁powers	-11.0856
tr	-11.0858
▁Khoản	-11.0859
▁Đang	-11.0859
▁Someone	-11.0859
▁thon	-11.0861
▁đãng	-11.0862
▁photo	-11.0867
▁voi	-11.0876
▁golf	-11.0878
up	-11.0878
▁ủ	-11.0882
▁determined	-11.0883
▁Sữa	-11.0883
▁entirely	-11.0885
▁gàng	-11.0885
▁original	-11.0886
▁perfectly	-11.0887
▁groups	-11.0891
▁hẻm	-11.0896
▁Lão	-11.0897
▁boss	-11.0901
▁nan	-11.0901
▁science	-11.0907
▁President	-11.091
▁yesterday	-11.091
▁motion	-11.0918
▁serve	-11.0922
▁roof	-11.0922
▁Jane	-11.0925
▁brothers	-11.0926
▁xì	-11.0934
▁lap	-11.0935
▁tóm	-11.0935
▁Mạng	-11.0938
▁Matt	-11.094
▁correct	-11.095
▁mẹo	-11.0954
▁boots	-11.0955
▁project	-11.0955
▁Sen	-11.096
▁therefore	-11.0964
▁Harry	-11.0969
▁medical	-11.0972
▁Thuật	-11.0974
▁map	-11.0986
▁Hiểu	-11.0987
▁Had	-11.0988
so	-11.0991
▁CO	-11.0993
▁gym	-11.0997
▁formed	-11.0998
▁DT	-11.1001
▁North	-11.1008
▁pleased	-11.1012
▁rubbed	-11.1012
▁French	-11.1014
▁Vitamin	-11.1015
▁Again	-11.102
▁bringing	-11.1021
▁ngạch	-11.1024
ur	-11.1024
▁cars	-11.1028
▁Hỏa	-11.103
▁Pin	-11.1031
▁tied	-11.1032
ha	-11.1032
vi	-11.1033
▁ignored	-11.1035
▁River	-11.1038
▁Law	-11.104
▁trade	-11.1042
▁trán	-11.1044
▁proud	-11.1046
▁râu	-11.1046
▁Fi	-11.1051
▁HS	-11.1052
▁activity	-11.1064
▁button	-11.1069
▁pure	-11.1079
▁twice	-11.108
▁sub	-11.1083
▁fill	-11.1085
▁warning	-11.1091
▁phì	-11.1091
▁CEO	-11.1095
▁fat	-11.1099
▁dặn	-11.1111
▁trâu	-11.1112
▁cleared	-11.1113
▁Vòng	-11.1118
▁Spa	-11.1119
▁record	-11.1119
▁Sẽ	-11.112
▁súc	-11.112
▁dỗ	-11.1123
▁former	-11.1123
▁burned	-11.1132
si	-11.1135
▁kicked	-11.1138
gi	-11.1138
▁gasped	-11.1139
▁north	-11.1146
▁đòn	-11.1147
▁teacher	-11.115
▁deeply	-11.1162
▁nine	-11.1163
▁pushing	-11.1166
▁trễ	-11.118
▁lốp	-11.1183
▁trùm	-11.1186
▁Free	-11.1188
▁hungry	-11.1192
▁hers	-11.12
▁hít	-11.1202
▁East	-11.1202
▁breaking	-11.1205
▁modern	-11.1206
ve	-11.1209
▁muttered	-11.1211
▁Cư	-11.1214
▁Bitcoin	-11.1221
▁false	-11.1227
▁Street	-11.1228
▁reaction	-11.1229
▁Gold	-11.123
▁Giảm	-11.1231
▁narrow	-11.1234
▁ngây	-11.1234
▁dying	-11.1243
▁Music	-11.1244
▁Sống	-11.1244
▁tơ	-11.1249
▁báu	-11.1251
▁Chấp	-11.1256
▁terms	-11.1261
▁sweat	-11.1264
▁plane	-11.1266
ol	-11.1272
▁solid	-11.1273
▁Nhiên	-11.1274
▁freedom	-11.1275
▁bọt	-11.1276
▁reaching	-11.1281
▁horses	-11.1282
▁dào	-11.1284
▁lụa	-11.1287
▁Đẹp	-11.1288
▁surrounded	-11.1292
▁orders	-11.1295
▁Sóc	-11.13
▁liễu	-11.1302
▁FLC	-11.1307
▁palm	-11.131
▁match	-11.1311
▁eyed	-11.1312
bo	-11.1313
▁otherwise	-11.1318
▁muỗi	-11.132
▁lọ	-11.1322
▁breast	-11.133
▁dirty	-11.1331
▁claim	-11.1339
▁Tát	-11.1339
▁DNA	-11.1341
▁knocked	-11.1348
▁bàng	-11.1348
▁stretched	-11.135
▁numbers	-11.1352
▁Tịnh	-11.1354
▁Ian	-11.1354
▁address	-11.1361
▁khuất	-11.1367
▁positive	-11.1367
▁Ronaldo	-11.1368
▁tí	-11.1375
▁lơ	-11.1376
▁Đáng	-11.1376
▁nhọn	-11.1377
▁spun	-11.1378
▁ván	-11.1378
▁Any	-11.138
▁refused	-11.1381
▁kiều	-11.1382
▁lồn	-11.139
▁GTVT	-11.1403
▁ủi	-11.1405
▁harder	-11.1407
▁apparently	-11.1408
▁Hộ	-11.1413
▁Prince	-11.1418
▁points	-11.142
▁Bảy	-11.1422
▁khẽ	-11.1425
▁chà	-11.1426
▁seek	-11.1431
▁nón	-11.1432
▁muội	-11.1433
▁Trưng	-11.1435
▁Mạc	-11.144
é	-11.1441
▁đè	-11.1442
▁Áp	-11.1443
▁piano	-11.1443
▁bùn	-11.1446
▁Nhiệt	-11.1447
▁files	-11.1454
▁harm	-11.1454
▁respond	-11.1465
▁survive	-11.1466
▁excited	-11.147
▁kẹo	-11.147
▁crack	-11.1474
▁z	-11.1483
▁Này	-11.1488
▁Lo	-11.1491
▁searching	-11.151
▁club	-11.151
▁century	-11.1514
▁screaming	-11.1516
▁south	-11.1517
▁bloody	-11.152
ee	-11.1523
▁demon	-11.1526
ke	-11.1535
▁vịt	-11.1535
▁favorite	-11.1538
▁tú	-11.1539
▁Tour	-11.1539
▁twisted	-11.1548
▁Dell	-11.1549
▁destroy	-11.1553
▁prove	-11.1555
▁gật	-11.1559
▁silently	-11.156
▁xắn	-11.1565
▁uất	-11.1571
tu	-11.1572
▁PM	-11.1573
▁chật	-11.1574
▁mood	-11.1578
▁gods	-11.1587
▁causing	-11.1587
▁Bãi	-11.159
ley	-11.1591
▁hả	-11.1592
▁Mexico	-11.1596
▁storm	-11.1598
▁inner	-11.1601
▁cap	-11.1602
▁TB	-11.1604
▁Của	-11.1617
▁mass	-11.1619
tin	-11.1619
▁angel	-11.162
▁teach	-11.1622
▁upset	-11.1622
▁nô	-11.1625
▁Up	-11.1629
▁International	-11.163
▁tạng	-11.163
▁absolutely	-11.1631
▁deck	-11.1633
▁engine	-11.1633
▁swung	-11.1639
▁rising	-11.1644
▁j	-11.1647
▁duty	-11.1647
▁gác	-11.1651
▁nghiệt	-11.1654
▁gentle	-11.1661
▁balance	-11.1662
ga	-11.1665
▁trệt	-11.1669
▁pray	-11.1672
Chúng	-11.1674
▁losing	-11.1676
▁Thì	-11.1679
ức	-11.1681
▁species	-11.1682
▁lặn	-11.1682
▁larger	-11.1687
▁jaw	-11.169
▁mistake	-11.1691
▁điêu	-11.1692
▁kẹt	-11.1694
▁Trắng	-11.1697
▁recognized	-11.1706
▁Nhanh	-11.1709
▁huyệt	-11.1713
▁firm	-11.1715
▁Greg	-11.1717
▁Ngành	-11.1719
▁daily	-11.1721
▁AM	-11.1724
▁Mobifone	-11.1726
▁Nokia	-11.1737
▁Doctor	-11.1738
▁forces	-11.1741
▁clouds	-11.1745
▁Nay	-11.1747
▁mate	-11.1748
▁feed	-11.1749
▁Khắc	-11.1751
▁et	-11.1754
▁rong	-11.1754
▁super	-11.1756
▁sending	-11.1757
▁vỗ	-11.1758
▁related	-11.1763
▁slept	-11.1764
▁technology	-11.1766
▁wedding	-11.1767
▁parking	-11.1768
▁honest	-11.1768
▁Very	-11.1769
▁Hong	-11.177
▁iOS	-11.1772
▁version	-11.1773
▁tui	-11.1773
▁revised	-11.1775
▁fault	-11.1779
▁growth	-11.1784
▁phe	-11.1785
▁everywhere	-11.1787
▁awake	-11.1793
▁character	-11.1794
▁section	-11.1796
▁hug	-11.1801
▁wings	-11.1802
▁nhấp	-11.1808
▁Stop	-11.1815
▁yeah	-11.182
▁ngắt	-11.1833
▁property	-11.1834
▁khía	-11.184
▁Lắp	-11.1843
▁Bái	-11.1846
▁Resort	-11.1846
▁particularly	-11.1847
▁remaining	-11.1847
▁spell	-11.1849
▁chảo	-11.1851
▁lánh	-11.1851
▁connection	-11.1854
id	-11.1855
▁LIT	-11.186
▁Thùy	-11.1865
▁Giê	-11.1866
▁sỏi	-11.187
▁nách	-11.1871
▁range	-11.1872
▁Really	-11.1873
▁trĩ	-11.1874
▁Nhĩ	-11.1875
▁verse	-11.1875
▁draw	-11.1877
▁Băng	-11.1878
ster	-11.1878
▁release	-11.1878
▁dặm	-11.1879
▁lowered	-11.188
▁html	-11.1882
▁kiềm	-11.189
▁khao	-11.1896
▁studied	-11.1899
▁rách	-11.1909
▁repeated	-11.1911
▁Xét	-11.1912
▁trail	-11.1914
▁SH	-11.1917
▁remains	-11.1919
▁Olympic	-11.1922
▁Drew	-11.1922
ó	-11.1923
ad	-11.1923
▁IV	-11.1924
▁mầu	-11.1925
▁starts	-11.1928
▁bóc	-11.1931
▁glow	-11.1936
▁nhường	-11.1939
com	-11.1939
ating	-11.1945
▁vehicle	-11.1946
▁vặn	-11.1949
▁thinks	-11.1955
▁xảo	-11.1956
▁theory	-11.1963
▁smooth	-11.1964
▁mid	-11.1966
▁mix	-11.1968
▁bưu	-11.197
▁bite	-11.1972
▁dời	-11.1973
▁Vinaphone	-11.1977
▁xịt	-11.1981
go	-11.1981
▁Kong	-11.1982
▁Vingroup	-11.1982
▁nobody	-11.1983
▁religious	-11.1986
▁Kon	-11.1988
ê	-11.1988
▁unto	-11.1989
▁statement	-11.1989
▁lột	-11.1995
▁Light	-11.1996
▁roll	-11.1998
▁Chuẩn	-11.1998
▁que	-11.1999
▁Tiện	-11.2
▁Trạch	-11.2007
▁State	-11.2007
▁gội	-11.2007
▁hông	-11.2008
▁tightly	-11.2008
▁hill	-11.2011
▁drinking	-11.2017
▁thus	-11.2018
▁Lisa	-11.2021
▁nhặt	-11.2021
▁location	-11.2023
▁sờ	-11.2028
▁direct	-11.2036
▁rule	-11.2042
▁iron	-11.2043
▁oan	-11.2043
▁prison	-11.2043
▁ngẫu	-11.205
▁merely	-11.2058
▁bừng	-11.2061
▁drawn	-11.2062
▁shifted	-11.2063
▁grey	-11.2064
▁Rịa	-11.2066
▁teen	-11.2068
▁Ar	-11.2068
▁sụp	-11.2069
▁chosen	-11.2074
▁Rao	-11.2075
▁signs	-11.2077
▁CNTT	-11.2078
▁tossed	-11.2079
▁plenty	-11.2087
▁product	-11.2089
▁meat	-11.209
▁fifty	-11.2091
▁micro	-11.2092
▁waste	-11.2096
▁threat	-11.2097
▁bow	-11.2097
ron	-11.2098
▁tánh	-11.21
▁imagined	-11.2101
▁island	-11.2103
▁mồi	-11.2103
▁lội	-11.2107
▁complex	-11.2108
▁spoken	-11.2108
▁minds	-11.2116
▁Being	-11.2121
▁chat	-11.2132
▁Ngược	-11.2132
▁shoot	-11.2133
▁Ro	-11.2135
▁Interpretation	-11.2136
▁slammed	-11.2138
▁nuốt	-11.2138
▁xô	-11.2144
▁planning	-11.2147
▁BS	-11.2151
▁learning	-11.2159
▁Vina	-11.2162
▁destroyed	-11.2166
▁Kiệt	-11.2176
▁Royal	-11.2184
▁Mùi	-11.2184
▁thousands	-11.2185
▁panic	-11.2185
▁cấy	-11.2187
▁PGS	-11.2189
as	-11.2198
▁facing	-11.2199
▁nowhere	-11.2201
▁Vợ	-11.2202
à	-11.2205
▁Friday	-11.221
▁shows	-11.221
▁Out	-11.2213
▁resort	-11.2215
▁Times	-11.2215
▁tip	-11.2216
▁condition	-11.2218
▁dong	-11.2221
▁leaning	-11.2222
▁nhung	-11.2222
▁instantly	-11.2227
▁Jimmy	-11.223
▁National	-11.2232
▁Ngươi	-11.2233
am	-11.2236
▁wiped	-11.2236
▁weather	-11.2237
▁Kevin	-11.2239
▁issues	-11.2242
▁chém	-11.2243
▁khiêm	-11.2245
▁google	-11.2246
▁Giác	-11.2247
▁nhuyễn	-11.2252
▁Remember	-11.2255
▁lở	-11.2256
▁cọ	-11.2269
▁Sea	-11.2271
▁Today	-11.2274
▁VND	-11.2275
▁slight	-11.2276
▁experienced	-11.2281
▁gởi	-11.2287
▁smaller	-11.2287
ah	-11.2287
▁bare	-11.229
▁Pinyin	-11.2294
▁chọc	-11.2296
sa	-11.2299
▁tunnel	-11.2299
▁vợt	-11.2301
▁Cổng	-11.2301
▁colored	-11.2302
▁vắt	-11.2303
▁Uy	-11.2305
▁Mu	-11.2307
▁frame	-11.2309
▁till	-11.2313
▁knock	-11.2315
▁tò	-11.2321
▁Art	-11.2321
▁sành	-11.2327
▁discuss	-11.2327
▁khiêu	-11.2328
▁Anyway	-11.2329
▁ok	-11.2331
▁Bar	-11.2331
ber	-11.2331
▁tước	-11.2335
▁RAM	-11.2347
▁hearts	-11.2347
▁Si	-11.2348
▁DC	-11.2348
▁wolf	-11.2348
▁Nhã	-11.2349
▁plastic	-11.2351
ô	-11.2352
▁press	-11.2358
▁bigger	-11.2359
▁rights	-11.2359
▁lies	-11.2361
tic	-11.2366
▁mỉm	-11.2368
▁muỗng	-11.2371
▁Liêu	-11.2373
▁wrist	-11.2377
▁function	-11.2382
▁Tặng	-11.2382
▁quỵ	-11.2384
▁Tưởng	-11.2386
▁interrupted	-11.2388
▁TW	-11.239
▁Tuất	-11.2391
▁gân	-11.2393
▁gang	-11.2394
▁fist	-11.2398
▁chose	-11.2402
▁advantage	-11.2407
▁recently	-11.2408
▁whisper	-11.2413
▁fate	-11.2413
▁Sunshine	-11.2413
▁blame	-11.2417
▁Luận	-11.2423
▁colour	-11.2426
▁plus	-11.2426
▁developed	-11.2427
▁Led	-11.2434
▁shown	-11.2436
▁split	-11.2437
▁IS	-11.2442
▁Council	-11.2448
▁Duyên	-11.2449
▁ranh	-11.2458
▁lift	-11.2458
▁drunk	-11.246
VN	-11.2462
▁fired	-11.2476
▁winter	-11.2477
▁emotion	-11.2478
▁excitement	-11.248
▁Đàm	-11.2482
▁somewhat	-11.2482
▁Giống	-11.2484
▁Soon	-11.2484
▁Mo	-11.2488
▁Độc	-11.2493
▁Jean	-11.2493
▁increased	-11.2496
▁square	-11.2497
▁gặt	-11.2497
▁flowers	-11.2498
▁becomes	-11.2506
▁gen	-11.2508
▁Lạng	-11.2512
▁patients	-11.2519
ts	-11.2519
▁rạp	-11.252
▁gom	-11.2522
▁orange	-11.2523
▁Bỉ	-11.2528
ite	-11.2529
▁chì	-11.2529
▁patient	-11.2536
▁deeper	-11.2539
ner	-11.2542
▁changing	-11.2543
▁Ngữ	-11.2546
▁Golden	-11.2548
▁mark	-11.2549
▁swallowed	-11.2553
▁Little	-11.2553
▁effects	-11.256
▁design	-11.2564
▁served	-11.2569
▁rough	-11.2571
▁partner	-11.2573
▁Thuế	-11.258
▁accident	-11.2581
▁areas	-11.2582
▁Subjects	-11.2591
▁Billy	-11.2591
▁images	-11.26
▁Sỹ	-11.2601
▁luộc	-11.2604
▁Trăng	-11.2608
▁appearance	-11.2611
ni	-11.2611
▁levels	-11.2612
bi	-11.2615
▁robot	-11.2619
▁games	-11.262
▁kỵ	-11.2625
va	-11.2627
▁loving	-11.2629
▁nhiếp	-11.2629
▁staying	-11.2632
▁Lá	-11.2633
▁scent	-11.2633
▁cloud	-11.2639
▁display	-11.2642
ps	-11.2643
▁Sắc	-11.2645
▁Tốc	-11.2646
▁bone	-11.2648
▁vỉa	-11.265
▁quí	-11.2655
▁library	-11.2655
▁Roman	-11.2655
▁Matthew	-11.2656
▁Too	-11.2663
▁Lang	-11.2664
▁emotional	-11.2668
▁expecting	-11.267
▁glasses	-11.2672
▁Thuê	-11.2681
▁innocent	-11.2681
ING	-11.2681
▁nation	-11.2682
▁nến	-11.2682
▁soldier	-11.2683
▁sexy	-11.2684
▁stronger	-11.2687
▁NhacCuaTui	-11.2688
▁pictures	-11.2688
▁đoan	-11.269
ek	-11.2691
▁responsible	-11.2691
▁Show	-11.2693
▁Tiết	-11.2694
▁poured	-11.2697
ance	-11.2703
▁AMA	-11.2716
▁st	-11.2717
▁Sàn	-11.2724
▁loan	-11.2724
▁chôn	-11.2725
▁extremely	-11.2725
▁si	-11.2725
▁chằm	-11.2726
▁shocked	-11.2732
▁tồi	-11.2737
▁impact	-11.2737
ong	-11.2738
▁Trực	-11.2743
▁Chăm	-11.275
▁count	-11.2755
mo	-11.2758
▁progress	-11.2764
▁seriously	-11.2774
▁Đống	-11.2776
không	-11.2777
▁dragged	-11.2779
▁wheel	-11.2782
▁Part	-11.2782
▁playlist	-11.2783
▁đống	-11.2787
▁sell	-11.279
▁families	-11.2793
▁giã	-11.2794
▁suffering	-11.2795
▁ate	-11.2795
▁stands	-11.2796
▁phiêu	-11.2799
▁dép	-11.2809
▁knee	-11.2813
▁Andrew	-11.2814
▁fellow	-11.2817
▁ocean	-11.282
▁judge	-11.282
▁Bắt	-11.2821
▁balo	-11.2822
▁lười	-11.2822
▁Joseph	-11.2822
▁instant	-11.2823
▁hước	-11.2832
▁Tr	-11.2834
▁lake	-11.2836
▁proper	-11.2837
den	-11.2848
▁Tony	-11.2856
▁kẹp	-11.2857
▁Nâng	-11.2862
▁Thiêm	-11.2862
▁gò	-11.2865
▁Despite	-11.2868
▁Hỏi	-11.2868
NG	-11.2871
▁Dây	-11.2876
▁Ten	-11.2879
▁Trận	-11.288
▁bộc	-11.2883
▁stream	-11.289
▁mâm	-11.2893
▁Jessica	-11.2893
▁crime	-11.2896
▁Chống	-11.2898
▁chain	-11.2899
▁steel	-11.2904
▁lovely	-11.2906
▁highly	-11.2907
▁container	-11.2907
▁Biểu	-11.2909
▁CA	-11.2912
▁Smart	-11.2921
▁Phil	-11.2921
▁matters	-11.2926
▁mập	-11.2927
▁kick	-11.2928
▁Phổ	-11.2936
▁Tích	-11.2939
▁Central	-11.2953
▁Give	-11.2953
▁countries	-11.2954
▁option	-11.2955
▁Kelly	-11.2972
▁demanded	-11.2972
▁Lu	-11.2977
▁ships	-11.2985
▁rush	-11.2986
▁khiếp	-11.2998
▁Damn	-11.2998
▁tear	-11.2999
▁bird	-11.3001
▁fool	-11.3003
▁castle	-11.3005
▁percent	-11.3006
▁BHYT	-11.3007
▁viếng	-11.3007
▁Khải	-11.3007
▁thread	-11.3008
▁Dụng	-11.3017
▁Looking	-11.302
▁protection	-11.3026
▁muscles	-11.3033
▁dollars	-11.3036
▁restaurant	-11.304
▁voices	-11.304
▁Ghi	-11.3043
▁nguội	-11.3046
▁bún	-11.3049
▁struggled	-11.305
▁concept	-11.3057
▁org	-11.3059
▁Nhập	-11.306
▁inches	-11.3061
▁loét	-11.3063
▁Johnny	-11.3064
▁KCN	-11.3065
▁distant	-11.3068
▁Annie	-11.3073
▁population	-11.3073
un	-11.3074
▁Tràng	-11.3075
▁chớ	-11.3078
▁°	-11.3083
▁Arsenal	-11.309
▁Tầng	-11.309
▁Cương	-11.309
▁cream	-11.3095
▁ngục	-11.3096
▁Khám	-11.3096
▁Tỳ	-11.3096
▁túng	-11.3101
▁Intel	-11.3105
▁Trụ	-11.3109
▁Tạ	-11.3111
▁Ok	-11.3118
q	-11.3122
im	-11.3122
▁Sunday	-11.3123
▁compared	-11.3124
▁gain	-11.3129
▁closing	-11.3129
▁monster	-11.3131
▁ISO	-11.3133
▁oh	-11.3135
▁lossless	-11.3136
▁bones	-11.3138
▁influence	-11.3139
▁connected	-11.3141
▁giếng	-11.3143
▁mu	-11.3144
▁rate	-11.315
▁flow	-11.3155
▁kingdom	-11.3155
▁Liverpool	-11.3155
▁recognize	-11.3157
▁greatest	-11.3158
▁buildings	-11.316
▁sake	-11.3161
▁á	-11.3164
▁upper	-11.3165
▁Also	-11.3166
▁surrounding	-11.3168
▁Tristan	-11.3169
▁Win	-11.317
▁rooms	-11.3171
▁cớ	-11.3171
▁bực	-11.3174
▁Đen	-11.3181
▁Ái	-11.3184
▁skills	-11.3185
▁Ki	-11.3187
▁chải	-11.319
▁phước	-11.3191
▁cases	-11.3192
▁hiếp	-11.3194
▁Laptop	-11.3195
▁bèn	-11.3197
▁HĐQT	-11.3201
▁guide	-11.3202
▁fifteen	-11.3203
▁marry	-11.3207
▁features	-11.3208
▁audience	-11.3209
▁cholesterol	-11.3217
▁houses	-11.3219
▁beings	-11.322
▁đu	-11.322
▁cash	-11.3222
kin	-11.3225
▁phô	-11.3229
▁Phẩm	-11.3229
▁Alan	-11.3232
▁Giữa	-11.3235
▁rested	-11.3239
▁vịnh	-11.3242
▁raise	-11.3244
▁Marcus	-11.3248
▁tăm	-11.3248
▁bread	-11.3253
▁surely	-11.3253
▁bother	-11.3255
▁successful	-11.3257
▁fixed	-11.326
▁increase	-11.3261
ang	-11.3263
▁ke	-11.3264
▁laws	-11.3267
▁landing	-11.3268
▁Mường	-11.3268
▁phốt	-11.327
▁breathe	-11.3273
▁Giáng	-11.3275
▁guitar	-11.328
▁hắc	-11.3281
ler	-11.3282
▁fruit	-11.3283
▁farm	-11.3285
▁Hot	-11.3287
tor	-11.3289
▁authority	-11.329
▁treated	-11.3291
▁Oliver	-11.3292
▁etc	-11.3293
▁ghen	-11.3293
▁loãng	-11.3294
▁separate	-11.3295
▁curious	-11.3295
▁traffic	-11.3296
▁ngặt	-11.3296
▁Hotel	-11.3297
▁Trải	-11.33
▁rể	-11.3302
▁Tống	-11.3304
▁BV	-11.3307
▁states	-11.3307
▁Ethan	-11.3308
▁Lô	-11.3309
▁blanket	-11.3312
▁Premier	-11.3314
▁sold	-11.3318
Không	-11.3319
▁clothing	-11.3326
▁breeze	-11.3326
▁Nhuận	-11.3326
▁Vườn	-11.3329
▁ri	-11.3332
▁chamber	-11.3333
▁Model	-11.3334
▁nhì	-11.3334
▁confidence	-11.3334
▁rocks	-11.3336
▁pace	-11.3341
ce	-11.3349
▁vã	-11.3354
▁Truy	-11.3354
▁wifi	-11.3355
▁Bank	-11.3355
▁goal	-11.3355
▁hips	-11.3356
▁alien	-11.3365
▁described	-11.3367
▁sầm	-11.337
▁Tám	-11.3374
▁bound	-11.3379
▁quality	-11.3379
▁AC	-11.3382
▁Loa	-11.3383
▁background	-11.3384
▁buried	-11.3385
▁Thí	-11.3386
▁status	-11.3387
▁Tokyo	-11.3391
▁faint	-11.3399
▁keys	-11.3399
▁burn	-11.34
▁returning	-11.34
ent	-11.3402
▁Ngôn	-11.3402
▁Ryan	-11.3403
▁Hiên	-11.3406
▁mountains	-11.3407
▁nhuộm	-11.3414
▁Series	-11.3416
▁tail	-11.3417
▁pm	-11.3417
▁brow	-11.3418
▁squeezed	-11.3421
za	-11.3424
▁worship	-11.3428
▁circumstances	-11.3434
▁IN	-11.3435
▁grace	-11.3437
▁confusion	-11.344
▁included	-11.344
▁Thập	-11.3441
▁topic	-11.3451
▁captain	-11.3451
▁Wow	-11.3456
▁observed	-11.3458
▁Han	-11.346
▁gầy	-11.3466
▁Vy	-11.3467
▁Đỏ	-11.3468
▁Roger	-11.3472
▁cau	-11.3478
▁rear	-11.3479
▁café	-11.3479
▁xuôi	-11.348
▁regular	-11.3481
▁forms	-11.3482
SI	-11.3485
▁papers	-11.349
▁khánh	-11.349
▁brand	-11.349
▁Tọa	-11.3491
izing	-11.3491
▁Mar	-11.3497
▁systems	-11.3498
▁During	-11.3498
▁row	-11.3499
▁convinced	-11.3504
▁dang	-11.3505
▁Mấy	-11.3505
ge	-11.3509
▁Wi	-11.3512
▁banh	-11.3517
▁Đảm	-11.3521
▁rét	-11.3521
▁khay	-11.3523
▁Đời	-11.3525
▁shift	-11.3526
by	-11.3526
ak	-11.3526
▁rolling	-11.3532
▁TO	-11.3535
▁British	-11.3535
▁Chakra	-11.3537
▁belt	-11.3545
▁bitch	-11.3545
▁ngỡ	-11.3548
▁nàn	-11.3548
▁manage	-11.3549
▁True	-11.355
▁souls	-11.355
▁Ti	-11.3553
▁cóc	-11.3554
▁Amazon	-11.356
▁legal	-11.3564
▁wisdom	-11.3564
▁Ghế	-11.3566
lan	-11.3567
á	-11.357
▁television	-11.3571
▁season	-11.3571
▁Nhaccuatui	-11.3575
▁assumed	-11.3575
▁Tức	-11.3575
▁LCD	-11.3579
▁faded	-11.3582
▁chớp	-11.3583
▁kẽm	-11.3583
▁loudly	-11.3586
▁Kyle	-11.3586
▁Fire	-11.3587
▁parked	-11.3591
▁Satan	-11.3594
▁yard	-11.3595
▁firmly	-11.3599
▁unknown	-11.36
▁drugs	-11.361
▁nháy	-11.3611
▁mủ	-11.3612
▁gieo	-11.3617
▁Four	-11.3617
▁Hiển	-11.3617
▁associated	-11.3618
▁Giả	-11.3624
▁blonde	-11.3627
▁punishment	-11.3632
▁structure	-11.3633
pe	-11.3633
▁capable	-11.3634
▁Victoria	-11.3636
▁ID	-11.3637
ey	-11.3639
▁HIV	-11.3647
▁Liễu	-11.3652
▁negative	-11.3654
▁Chơi	-11.3655
▁Tag	-11.3661
▁Smith	-11.3668
▁heavily	-11.3669
▁tent	-11.3671
▁hăng	-11.3672
▁rage	-11.3678
▁En	-11.3679
▁LH	-11.3683
▁actual	-11.3687
▁chướng	-11.3688
▁grand	-11.3692
ten	-11.3699
▁gót	-11.37
▁đuối	-11.37
▁sụt	-11.3703
tion	-11.3703
▁thrown	-11.3703
▁honor	-11.3704
▁happiness	-11.3705
▁ill	-11.3705
▁Túi	-11.3712
▁Mạch	-11.3713
▁Fe	-11.3716
▁intense	-11.3717
▁guns	-11.3717
▁intended	-11.3723
▁hãm	-11.3723
▁lẫy	-11.3724
▁equipment	-11.3726
▁spring	-11.3729
▁cotton	-11.373
▁Xử	-11.3738
▁rộ	-11.3741
▁Tuyến	-11.3743
▁ghost	-11.3743
▁Chàng	-11.3746
▁lộng	-11.3748
▁dỡ	-11.3753
▁priest	-11.3756
▁novel	-11.3762
▁career	-11.3762
▁temple	-11.3765
▁Ken	-11.3766
▁BMW	-11.3766
▁chùm	-11.377
▁throwing	-11.3772
▁Death	-11.3775
▁lots	-11.3777
▁insisted	-11.3778
▁appears	-11.378
▁Thoại	-11.3781
▁phật	-11.3781
▁somebody	-11.3783
▁folded	-11.3788
▁advice	-11.3789
▁kiêu	-11.3789
▁Alice	-11.3791
▁Miễn	-11.3796
▁Xác	-11.3796
▁Bang	-11.3798
▁Dĩ	-11.3799
▁flames	-11.38
▁iphone	-11.38
▁đao	-11.3805
▁dogs	-11.3812
▁ease	-11.3816
▁logic	-11.3819
▁TN	-11.3821
▁Office	-11.3823
▁elevator	-11.3825
▁gầm	-11.3828
▁mask	-11.3829
▁forgive	-11.383
▁Los	-11.3831
▁Laser	-11.3833
▁challenge	-11.3837
▁Com	-11.3837
▁announced	-11.3841
▁cỗ	-11.3842
▁violence	-11.3847
▁opinion	-11.3848
▁Erin	-11.385
ana	-11.3864
▁addition	-11.3864
▁Keep	-11.3865
▁slip	-11.3865
▁agreement	-11.387
▁recent	-11.3871
▁vast	-11.3873
ung	-11.3874
▁underneath	-11.3875
ti	-11.3875
▁OF	-11.3877
▁hugged	-11.3885
▁sees	-11.3887
▁Lake	-11.3893
▁Islam	-11.3901
oc	-11.3906
▁Therefore	-11.3907
▁Vấp	-11.3909
▁smiles	-11.3911
▁Nghiêm	-11.3911
▁Taylor	-11.3911
▁twelve	-11.3915
▁stranger	-11.3917
▁fake	-11.3923
▁cach	-11.3928
▁Eco	-11.3929
▁Plaza	-11.393
▁Rachel	-11.3931
▁survival	-11.3933
▁occurred	-11.3933
▁nhiễu	-11.3935
▁Saturday	-11.3939
▁Uyên	-11.3939
▁chéo	-11.3941
▁Tố	-11.395
▁Sơ	-11.3951
▁hoãn	-11.3952
po	-11.3953
▁spotted	-11.3955
▁Đáp	-11.3963
▁cẩm	-11.3965
▁Luân	-11.3967
▁pile	-11.3978
one	-11.3978
▁strike	-11.3982
▁alright	-11.3985
▁creation	-11.3988
▁ain	-11.3992
▁ngất	-11.3998
▁xốp	-11.4
▁Laura	-11.4002
▁thêu	-11.4007
▁Champions	-11.4009
▁khinh	-11.4009
▁toilet	-11.4019
▁dancing	-11.4019
▁everybody	-11.4019
▁Vẫn	-11.4022
▁dozen	-11.4028
▁rải	-11.4028
▁Young	-11.4031
▁Tạng	-11.4034
▁chocolate	-11.4034
▁Dark	-11.4039
▁Jamie	-11.4041
▁suggest	-11.4041
▁corridor	-11.4047
▁dare	-11.4048
▁Kông	-11.4054
▁replaced	-11.4055
▁core	-11.4058
▁film	-11.4059
▁bags	-11.4062
▁Five	-11.4063
▁Fine	-11.4064
▁realised	-11.4065
▁limited	-11.4069
▁officers	-11.4071
▁buýt	-11.4072
▁briefly	-11.4073
▁Vịnh	-11.4074
▁chói	-11.408
▁hasn	-11.4084
▁Africa	-11.4087
▁ư	-11.4088
ru	-11.4091
▁SUV	-11.4094
▁warmth	-11.4097
▁rò	-11.4108
▁remove	-11.411
▁forgot	-11.4112
▁Ranger	-11.4114
▁Cựu	-11.412
▁pen	-11.4121
▁hân	-11.4122
▁east	-11.4125
▁justice	-11.4126
▁exclaimed	-11.4127
▁eyebrows	-11.4128
▁sink	-11.4129
mi	-11.413
▁relaxed	-11.4132
▁Quế	-11.4133
▁VI	-11.4133
▁exit	-11.4135
kh	-11.4135
▁wise	-11.4138
▁Ever	-11.4139
▁review	-11.414
▁DVD	-11.4142
▁Hạt	-11.4152
▁Chinh	-11.4153
▁Play	-11.4158
▁teaching	-11.4167
▁Lily	-11.4169
▁Trao	-11.4173
▁hack	-11.4173
▁Vùng	-11.4173
sen	-11.4173
▁Say	-11.4177
▁possibility	-11.4177
▁ngoạn	-11.4177
▁nhổ	-11.4178
▁Kho	-11.418
▁Aunt	-11.4185
▁covering	-11.4187
▁Texas	-11.419
▁xỉ	-11.419
▁Tum	-11.4194
house	-11.4194
▁Make	-11.4196
▁quấn	-11.4197
▁paying	-11.42
▁appreciate	-11.4203
▁QL	-11.4204
▁CĐ	-11.4207
▁Cúc	-11.4208
▁Call	-11.4211
▁đê	-11.4212
▁kẽ	-11.4215
ize	-11.4216
▁upright	-11.4222
▁items	-11.4223
anh	-11.4228
ho	-11.4232
▁forty	-11.4233
▁Italy	-11.4235
▁giặc	-11.4237
▁horror	-11.4238
▁bìa	-11.4239
▁pride	-11.4242
▁extended	-11.4242
▁Soi	-11.4246
▁stopping	-11.4249
▁closely	-11.4251
▁Ray	-11.4252
▁ignore	-11.4254
▁Tới	-11.4261
▁bưởi	-11.4261
▁significant	-11.4263
▁Euro	-11.4265
▁tro	-11.4268
▁behavior	-11.4268
ning	-11.4269
▁enemies	-11.4275
rin	-11.4278
▁disease	-11.4283
▁joke	-11.4284
▁Claire	-11.4284
▁drawing	-11.4287
▁friendly	-11.4289
▁desperate	-11.429
▁Trò	-11.4291
▁Jews	-11.4296
▁weekend	-11.4297
▁bén	-11.4298
▁studies	-11.4304
ại	-11.4308
▁uncomfortable	-11.4308
▁steady	-11.4311
▁GDP	-11.4311
▁sưởi	-11.4311
▁chui	-11.4313
▁height	-11.4314
▁India	-11.4316
▁gel	-11.4318
▁conditions	-11.432
▁Other	-11.4324
▁rủ	-11.4326
▁Vinpearl	-11.4326
▁mác	-11.4331
▁NAM	-11.4332
▁Lắk	-11.4333
▁Asia	-11.4342
▁mép	-11.4344
▁flashed	-11.4345
▁None	-11.4346
▁blind	-11.4347
▁healing	-11.4352
▁struggle	-11.4353
▁PU	-11.4366
▁blew	-11.4369
ier	-11.4372
▁painful	-11.4374
▁Xu	-11.4375
▁nhai	-11.438
▁assume	-11.4382
▁admitted	-11.4384
▁conscious	-11.4388
▁Miller	-11.439
der	-11.4394
▁birds	-11.4394
▁remind	-11.4395
▁shame	-11.4401
▁Click	-11.4402
▁Twitter	-11.4403
▁passage	-11.4404
▁acting	-11.4406
way	-11.4406
sh	-11.4409
▁Abraham	-11.4409
▁sexual	-11.4414
▁shoved	-11.4415
▁toan	-11.4415
▁Iraq	-11.4416
▁divine	-11.4418
▁request	-11.4421
▁Its	-11.4423
ai	-11.4426
▁allowing	-11.4429
▁bowl	-11.4432
▁cúm	-11.4436
▁Mừng	-11.4437
▁thản	-11.4445
▁rope	-11.4449
▁Uống	-11.4457
▁Jan	-11.4458
▁Nhớ	-11.4463
▁shooting	-11.4463
▁services	-11.4464
▁Such	-11.4465
▁Lựa	-11.4466
▁uniform	-11.4473
▁nành	-11.4477
▁birthday	-11.448
▁degree	-11.4482
▁IT	-11.4487
▁Nhung	-11.4489
▁pause	-11.4489
▁xài	-11.4492
▁Putin	-11.4493
▁bạ	-11.4499
▁explanation	-11.4501
▁Lạp	-11.4501
TV	-11.4502
▁hiên	-11.4506
▁chairs	-11.451
▁basic	-11.4514
▁device	-11.4515
▁thạo	-11.4517
▁constantly	-11.4519
▁Rob	-11.4519
▁warned	-11.4523
▁ah	-11.4523
▁shopping	-11.453
▁trầy	-11.4542
▁Mê	-11.4544
▁plant	-11.4546
▁brushed	-11.4549
▁climb	-11.4551
▁agent	-11.4552
▁hundreds	-11.4552
▁USA	-11.4554
▁attached	-11.4556
▁khít	-11.4557
▁spine	-11.4561
▁blinked	-11.4564
▁glared	-11.4566
▁Zealand	-11.4567
▁Michelle	-11.4567
▁leads	-11.4567
▁bẩm	-11.4572
“	-11.4576
▁relieved	-11.4581
tra	-11.4585
ns	-11.459
▁whenever	-11.459
▁credit	-11.4591
▁Tóm	-11.4592
▁Cu	-11.4593
▁touching	-11.4594
▁west	-11.4599
▁Se	-11.4602
▁terror	-11.4605
IS	-11.4608
▁IELTS	-11.4615
▁Rock	-11.4616
▁analysis	-11.4618
▁useful	-11.4618
▁education	-11.4621
mar	-11.4621
▁Dựa	-11.4622
▁bench	-11.4624
▁AN	-11.4625
▁treat	-11.4627
▁begins	-11.4631
▁football	-11.4634
▁grateful	-11.4634
▁Last	-11.4638
▁wealth	-11.4638
▁cối	-11.464
▁visible	-11.4643
▁speech	-11.4652
ization	-11.4658
▁detail	-11.4664
▁ngậm	-11.4666
▁breathed	-11.467
▁láng	-11.4671
▁milk	-11.4673
long	-11.4675
▁ướp	-11.4678
▁lửng	-11.468
▁enjoying	-11.4681
▁XII	-11.4685
tsu	-11.4685
▁Mộ	-11.4685
▁nghiền	-11.4687
▁considering	-11.4687
▁Ad	-11.4687
▁Island	-11.4688
▁production	-11.4688
▁hoi	-11.469
▁Sổ	-11.469
▁nhồi	-11.4694
ja	-11.4698
▁walks	-11.471
▁prince	-11.4718
▁letters	-11.4722
▁hoc	-11.4723
▁cưng	-11.4725
▁badly	-11.4727
▁AI	-11.4728
▁Xiaomi	-11.4734
▁Tuyệt	-11.4738
▁attacked	-11.4742
▁TR	-11.4742
▁Giày	-11.4748
▁approaching	-11.4752
▁Luôn	-11.4754
▁HN	-11.4754
▁Hòn	-11.4759
▁xo	-11.4764
▁thục	-11.477
▁loves	-11.4771
▁Car	-11.4776
▁host	-11.4783
▁owner	-11.4784
▁Buôn	-11.4787
▁Phí	-11.479
▁khuya	-11.479
▁prevent	-11.479
ut	-11.4794
▁precious	-11.4799
▁queen	-11.4803
▁KT	-11.4804
▁plain	-11.4812
▁invited	-11.4812
▁belly	-11.4813
▁horrible	-11.4816
▁offering	-11.4819
▁Court	-11.482
▁national	-11.4823
▁Núi	-11.4823
▁PCCC	-11.4824
▁upstairs	-11.4827
ki	-11.4834
▁bẻ	-11.4837
▁miên	-11.4838
les	-11.4838
▁Beth	-11.4839
▁HT	-11.4846
▁guilty	-11.4846
▁arrive	-11.4857
▁constant	-11.486
▁College	-11.486
▁famous	-11.486
▁rát	-11.4863
▁April	-11.4866
▁desert	-11.4869
▁quấy	-11.4872
▁niệu	-11.4872
▁efforts	-11.4879
▁Củ	-11.4885
▁Mourinho	-11.4891
▁Pha	-11.4896
▁benefit	-11.4901
▁Từng	-11.4901
▁subjects	-11.4906
▁hurried	-11.4908
▁relax	-11.491
▁xé	-11.4915
▁Listen	-11.4919
▁unique	-11.4922
▁grandmother	-11.4922
▁designed	-11.4924
▁cloth	-11.4927
ze	-11.4927
▁cúc	-11.4935
▁hurry	-11.4939
▁Ash	-11.4941
▁informed	-11.4945
▁responsibility	-11.4948
▁tax	-11.4952
▁backed	-11.4956
▁witch	-11.496
▁ruồi	-11.4967
▁trained	-11.497
▁NQ	-11.4971
▁advanced	-11.4971
▁AFF	-11.4971
▁Johnson	-11.4974
▁Unfortunately	-11.4975
▁Business	-11.4975
▁permission	-11.4975
▁panel	-11.4975
▁stones	-11.4977
▁economic	-11.4978
ard	-11.4983
▁liquid	-11.4984
▁Binh	-11.4986
ov	-11.4993
▁favor	-11.4994
▁cook	-11.4996
▁nurse	-11.4997
▁worn	-11.4998
▁purple	-11.4999
▁frozen	-11.5001
▁Government	-11.5001
▁Pu	-11.5002
▁nản	-11.5004
▁ends	-11.5005
ây	-11.5008
▁environment	-11.5013
▁lượn	-11.5017
▁Sapa	-11.5017
▁Pop	-11.5018
▁Far	-11.5021
▁khan	-11.5025
▁thối	-11.5028
▁Dần	-11.5028
▁peered	-11.5028
▁gather	-11.503
▁reveal	-11.5031
▁Western	-11.5032
▁Chữ	-11.5034
▁ru	-11.5035
▁professional	-11.5036
▁Trạm	-11.5037
▁hét	-11.5044
▁Thao	-11.5048
▁chèn	-11.5051
▁August	-11.5051
▁silly	-11.5052
▁gấu	-11.5052
▁excuse	-11.506
▁hoạn	-11.5071
▁Thẻ	-11.5072
▁nights	-11.5074
▁Xa	-11.5082
▁hóc	-11.5084
▁noi	-11.5092
▁produced	-11.5092
▁đũa	-11.5092
Nếu	-11.5096
▁Club	-11.5105
▁mắng	-11.5109
▁senses	-11.511
▁leaders	-11.5117
wood	-11.5119
▁holy	-11.5124
▁Tuệ	-11.5124
▁recall	-11.5137
▁Thus	-11.5137
▁cào	-11.514
ot	-11.5142
▁nhí	-11.5146
▁begun	-11.5147
mer	-11.5148
▁reported	-11.515
▁Đầm	-11.5151
ran	-11.5154
▁VÀ	-11.5155
▁Messi	-11.5159
▁Đau	-11.5163
▁Gọi	-11.5163
▁Phụng	-11.5163
▁hesitated	-11.5166
▁escaped	-11.5167
ping	-11.5168
▁mercy	-11.5173
▁humanity	-11.5173
▁chốc	-11.5175
▁Keith	-11.5176
▁Europe	-11.5177
▁resting	-11.5178
▁located	-11.5179
▁REL	-11.518
▁Melissa	-11.5185
▁garage	-11.5185
▁Ava	-11.5186
▁attitude	-11.5187
▁honey	-11.5188
▁keeps	-11.5189
▁Cứu	-11.5189
▁nhọc	-11.5191
ities	-11.5196
▁activities	-11.5197
▁Cực	-11.52
▁packed	-11.5201
▁belief	-11.5202
▁lận	-11.5202
▁Dao	-11.5203
▁Open	-11.5204
ji	-11.5206
▁Trở	-11.5212
▁×	-11.5213
▁toát	-11.5217
▁pot	-11.522
▁gazed	-11.5226
CH	-11.5228
▁groaned	-11.5231
▁intelligence	-11.5232
▁mon	-11.5234
▁Đậu	-11.5234
▁dining	-11.5238
▁Trấn	-11.5239
▁handsome	-11.5239
▁stumbled	-11.5239
▁Hill	-11.524
▁nu	-11.524
▁growled	-11.5241
▁cúp	-11.5242
▁Phu	-11.5242
ise	-11.5242
▁confirmed	-11.5243
▁Cảng	-11.5246
▁quỳ	-11.5248
▁Visa	-11.5249
▁breasts	-11.5249
▁Xá	-11.525
▁discussion	-11.5251
▁spirits	-11.5251
▁TC	-11.5252
▁Neil	-11.5253
▁foreign	-11.5256
▁imagination	-11.5256
▁điềm	-11.5256
▁embrace	-11.5258
▁vo	-11.5262
▁Water	-11.5266
dy	-11.5276
▁June	-11.5276
▁resistance	-11.5281
▁rid	-11.5283
▁Tấm	-11.5284
▁continues	-11.5288
▁frustration	-11.5288
▁regarding	-11.5291
▁Làng	-11.5292
▁slide	-11.5297
▁Rei	-11.53
▁Professor	-11.53
▁searched	-11.5302
▁proof	-11.5307
▁sếp	-11.5307
▁include	-11.5308
▁pages	-11.5312
▁boot	-11.5313
pi	-11.5315
▁gập	-11.5321
▁TTg	-11.5322
▁Moon	-11.5325
▁Ung	-11.5326
▁khốc	-11.5326
í	-11.533
▁VIỆT	-11.533
▁glowing	-11.5336
▁Min	-11.5336
▁TQ	-11.534
▁giò	-11.5341
▁prepare	-11.5343
▁angels	-11.5345
▁alarm	-11.5347
▁AT	-11.535
▁Giảng	-11.5352
he	-11.5355
▁culture	-11.5357
▁fashion	-11.5358
▁Thịt	-11.5362
▁Quách	-11.5364
▁produce	-11.5364
be	-11.5366
zi	-11.5369
▁rạn	-11.5376
▁mud	-11.5381
▁Ukraine	-11.5382
▁beating	-11.5384
▁Cuba	-11.5385
▁guilt	-11.5387
▁paint	-11.5389
▁Rồng	-11.5391
▁pleasant	-11.5395
▁dạn	-11.5395
▁Ne	-11.5395
cho	-11.5397
▁náo	-11.5398
▁creating	-11.54
▁abandoned	-11.5404
▁View	-11.5405
▁armor	-11.5407
▁phác	-11.5409
cha	-11.5411
▁swear	-11.5414
▁witness	-11.5414
▁Hall	-11.5417
▁Pan	-11.542
▁dê	-11.542
tech	-11.5421
▁platform	-11.5422
▁porch	-11.5422
▁Canh	-11.5425
▁nhái	-11.5429
▁thảy	-11.5433
per	-11.5436
▁established	-11.5442
▁healthy	-11.5443
▁exposed	-11.5443
▁GIÁ	-11.5443
▁Tờ	-11.5445
▁tough	-11.5446
▁CSC	-11.5446
▁Per	-11.5447
▁average	-11.5447
▁Tránh	-11.5447
▁PR	-11.545
ac	-11.545
▁tennis	-11.545
▁server	-11.5453
▁England	-11.5457
▁Mazda	-11.546
▁lightly	-11.546
▁đố	-11.5461
▁rare	-11.5464
▁Inter	-11.5465
▁bunch	-11.5467
▁Côn	-11.5468
ring	-11.5468
▁destruction	-11.547
▁Julia	-11.5475
▁Lucas	-11.5484
▁Heaven	-11.5485
▁decal	-11.5486
▁phất	-11.5493
▁Myanmar	-11.5495
▁shield	-11.5498
▁victim	-11.5503
▁seeking	-11.5503
▁PN	-11.5507
▁policy	-11.551
▁glory	-11.551
▁sảnh	-11.5515
▁eternal	-11.5515
▁Cám	-11.5519
▁lined	-11.5521
▁types	-11.5524
▁lụt	-11.5525
▁washed	-11.5526
▁vứt	-11.5533
▁Ng	-11.5535
▁Lớn	-11.5536
▁cằm	-11.5538
▁tie	-11.5541
▁BC	-11.5545
▁introduced	-11.5547
▁ghê	-11.5548
▁Mắt	-11.5549
▁demons	-11.5554
người	-11.5559
▁Science	-11.5561
ci	-11.5568
▁discover	-11.5574
▁Building	-11.5574
▁tấu	-11.5581
▁Uh	-11.5585
▁két	-11.559
▁Bluetooth	-11.5594
▁Tyler	-11.5597
▁Đấu	-11.5599
▁miêu	-11.5601
▁Stephen	-11.5602
▁slave	-11.5603
▁thạc	-11.5603
▁Ru	-11.5606
▁Tả	-11.5606
▁Gi	-11.5608
▁Khôi	-11.5612
▁perform	-11.5614
▁Mel	-11.5617
ina	-11.5617
▁swept	-11.5619
▁ả	-11.5622
▁ròng	-11.5623
don	-11.5623
▁font	-11.5624
the	-11.5626
▁Team	-11.5626
▁khuấy	-11.5632
▁Morgan	-11.5633
▁skull	-11.5635
▁Ước	-11.5636
▁sừng	-11.5641
▁cute	-11.5648
▁Cháu	-11.5651
▁Seo	-11.5652
▁gmail	-11.5653
▁picking	-11.5657
▁Thai	-11.566
▁Dậu	-11.5661
▁experiences	-11.5662
▁emerged	-11.5666
▁dưng	-11.5667
▁vít	-11.5668
AN	-11.5668
▁phiến	-11.5671
▁pit	-11.5673
▁Mông	-11.5674
▁grasp	-11.5676
▁Càng	-11.5681
▁Blog	-11.5681
▁thiếp	-11.5683
▁suspect	-11.5683
bar	-11.5684
▁Kia	-11.5687
▁Larry	-11.5691
▁sentence	-11.5695
▁nhũ	-11.5695
▁brings	-11.5698
▁vampires	-11.5699
▁throne	-11.5704
▁France	-11.5705
▁oán	-11.5705
▁Sát	-11.5706
▁Live	-11.5707
▁lén	-11.5709
lu	-11.5714
▁Amy	-11.5718
▁SP	-11.5719
▁invisible	-11.5722
▁unit	-11.5724
▁royal	-11.5727
▁Cận	-11.5727
▁rapidly	-11.5729
ham	-11.5729
▁holds	-11.5731
IT	-11.5735
▁rỗng	-11.5735
Các	-11.5741
▁afford	-11.5741
▁độn	-11.5742
▁TAND	-11.5743
▁moves	-11.5746
▁Khanh	-11.575
▁tạc	-11.575
▁thủng	-11.5753
▁item	-11.5759
▁pho	-11.576
▁load	-11.576
▁describe	-11.5762
▁Ya	-11.5763
▁Maggie	-11.5763
▁cracked	-11.5763
▁thong	-11.5769
▁Diane	-11.577
▁nệm	-11.5771
▁closet	-11.5771
▁thiêu	-11.5773
▁official	-11.5779
▁branches	-11.578
▁Katie	-11.5782
▁rỗi	-11.5793
▁nghẹt	-11.5794
▁motor	-11.5797
▁ladies	-11.5797
▁Manchester	-11.5802
▁Lò	-11.5803
▁Brown	-11.5809
ach	-11.5809
▁fields	-11.581
▁tables	-11.5811
ker	-11.5811
▁Should	-11.5812
▁shaped	-11.5817
▁checking	-11.5821
▁SV	-11.5826
▁Gà	-11.5826
hi	-11.5827
▁ripped	-11.5828
▁nhậu	-11.5828
▁concrete	-11.5829
▁sheet	-11.583
▁argument	-11.5834
io	-11.5834
▁rifle	-11.584
▁girlfriend	-11.584
▁painted	-11.5841
▁carbon	-11.5842
▁gr	-11.5843
▁Ed	-11.5844
▁exact	-11.5847
▁signal	-11.585
▁instructions	-11.5854
▁sùi	-11.5859
▁info	-11.5864
▁biếng	-11.5866
▁suffer	-11.5867
▁driven	-11.5868
▁frown	-11.5869
▁Barcelona	-11.587
▁rớt	-11.5875
▁Actually	-11.5878
▁thê	-11.5879
▁rescue	-11.5879
▁Philip	-11.588
▁lab	-11.5881
▁backwards	-11.5883
▁Anne	-11.5884
▁kissing	-11.5887
▁cưa	-11.5892
▁Hổ	-11.5893
▁Noah	-11.5895
▁gear	-11.5895
ED	-11.5897
▁Cal	-11.5897
▁sầu	-11.59
▁thắn	-11.5901
▁thắp	-11.5904
▁purchase	-11.5905
▁Bốn	-11.5905
▁fed	-11.5911
▁riding	-11.5914
▁profile	-11.5916
ft	-11.5917
lam	-11.5917
▁Liệt	-11.5918
▁Tiếu	-11.5921
ial	-11.5921
▁guests	-11.5924
▁rước	-11.5925
▁claimed	-11.5925
ị	-11.5928
▁sisters	-11.5931
▁Dinh	-11.5934
▁rode	-11.5938
▁bowed	-11.5938
▁niềng	-11.5938
▁hint	-11.5943
▁ensure	-11.5944
▁Night	-11.5944
▁Khương	-11.5949
▁vòm	-11.595
▁horizon	-11.5951
▁sons	-11.5952
▁fail	-11.5955
▁Aaron	-11.5967
▁assured	-11.5969
net	-11.5972
▁Under	-11.5973
▁options	-11.5974
▁lũng	-11.5974
▁lu	-11.5975
▁Human	-11.5976
▁Vốn	-11.5977
king	-11.5977
▁Uncle	-11.5978
▁mixed	-11.5986
▁Thôi	-11.5986
▁đốm	-11.5988
▁Nhiệm	-11.5989
▁Lâu	-11.5989
▁lord	-11.5989
▁đậy	-11.5991
▁Index	-11.5996
▁pilot	-11.5998
▁YOU	-11.6
ita	-11.6001
▁tower	-11.6003
▁End	-11.6003
▁TM	-11.6004
ơ	-11.6005
▁noted	-11.6006
▁vớt	-11.6006
▁popular	-11.6009
▁ugly	-11.6012
▁Diễm	-11.6013
▁Hollywood	-11.6015
▁đàng	-11.6017
▁Olivia	-11.6018
▁gene	-11.6025
▁Games	-11.6027
▁vọt	-11.6029
▁runs	-11.603
▁via	-11.6035
▁HTC	-11.6035
▁Ali	-11.6035
▁cừu	-11.6037
▁Zach	-11.6038
▁fence	-11.6038
▁Best	-11.6039
▁German	-11.6041
TT	-11.6041
▁vest	-11.6041
▁pattern	-11.6045
▁wash	-11.6045
▁nếm	-11.605
▁Kingdom	-11.6055
▁Italia	-11.6059
ren	-11.6059
▁Sally	-11.606
▁Sat	-11.6061
▁multiple	-11.6062
▁Lĩnh	-11.6063
▁clearing	-11.6063
▁protected	-11.6064
▁attempted	-11.6065
▁cigarette	-11.6067
▁exchange	-11.6067
▁prefer	-11.6068
▁develop	-11.607
▁nhàm	-11.607
▁Mị	-11.6071
▁gậy	-11.6071
▁Hứa	-11.6074
▁Alpha	-11.6074
▁Jerusalem	-11.6076
IN	-11.6077
▁Things	-11.6077
▁cutting	-11.6078
▁resources	-11.6081
▁evolution	-11.6083
▁Jared	-11.6085
▁cẩu	-11.6087
ura	-11.6093
▁vác	-11.6094
min	-11.6094
▁lesson	-11.6097
▁painting	-11.6097
▁Barca	-11.6105
▁phông	-11.6105
tan	-11.6107
▁Molly	-11.6109
▁forum	-11.6112
▁Hộp	-11.6114
▁Hảo	-11.6114
▁Wall	-11.6115
▁xát	-11.6115
TH	-11.6118
▁nêm	-11.612
▁interview	-11.6124
▁Centre	-11.6125
▁secure	-11.6128
▁workers	-11.6128
▁gục	-11.613
▁cared	-11.6131
vo	-11.6133
▁vôi	-11.6133
▁euro	-11.6133
▁Barry	-11.6139
▁route	-11.6146
▁den	-11.6146
▁Gửi	-11.6148
▁thumb	-11.6149
▁March	-11.615
▁lungs	-11.6151
▁desperately	-11.6152
▁hitting	-11.6156
▁trick	-11.6159
▁tị	-11.6162
ably	-11.6162
▁Argentina	-11.6165
▁Jeff	-11.6166
▁exhausted	-11.6168
▁anybody	-11.6173
▁hanh	-11.6179
ế	-11.6181
▁normally	-11.6187
▁active	-11.619
▁maintain	-11.6191
▁Than	-11.6192
▁Cindy	-11.6192
▁incident	-11.6195
▁sụn	-11.6201
▁lightning	-11.6202
eth	-11.6202
▁effective	-11.6203
▁rảnh	-11.6203
▁Indian	-11.6204
ăn	-11.6204
▁Hân	-11.6207
▁aid	-11.6208
▁curse	-11.621
▁supply	-11.6212
▁combination	-11.6212
▁ray	-11.6213
▁Think	-11.6215
▁Phoenix	-11.6216
▁calo	-11.6218
▁Tan	-11.6219
▁phụng	-11.6221
▁believers	-11.6222
▁choáng	-11.6226
▁remote	-11.6227
▁properly	-11.6228
▁scientific	-11.623
▁nuclear	-11.6231
▁Đền	-11.6243
▁convince	-11.6246
▁cặn	-11.6247
▁crystal	-11.625
▁Monday	-11.6251
▁tapped	-11.6252
▁SO	-11.6254
▁Jen	-11.6256
▁sacrifice	-11.6256
▁Ex	-11.6262
▁awful	-11.6263
▁FBI	-11.6263
▁heels	-11.6263
▁guest	-11.6264
▁scan	-11.6265
▁victory	-11.6265
▁charged	-11.6267
▁mo	-11.627
▁cock	-11.6276
▁directions	-11.628
▁method	-11.628
▁expensive	-11.6281
▁Youtube	-11.6282
▁nhat	-11.6283
▁thỏ	-11.6284
▁mía	-11.6284
▁phai	-11.6285
▁border	-11.6286
▁According	-11.6288
▁ren	-11.6288
▁Dễ	-11.6291
▁Ngọ	-11.6291
▁unusual	-11.6298
Tr	-11.6299
▁centre	-11.6301
light	-11.6303
▁lẩu	-11.6303
▁Santa	-11.6306
▁boyfriend	-11.6308
▁Đổi	-11.6308
▁giáng	-11.6309
▁AND	-11.6313
▁contained	-11.6314
▁warrior	-11.6319
▁Seth	-11.632
▁drinks	-11.6325
▁October	-11.6325
▁Niên	-11.6329
▁rổ	-11.633
▁amongst	-11.6331
▁Bobby	-11.6336
ky	-11.6338
▁Later	-11.6338
▁búp	-11.634
ists	-11.634
▁exercise	-11.6341
▁torn	-11.6345
▁spending	-11.6349
▁nga	-11.6351
▁cạo	-11.6351
▁jobs	-11.6352
▁Magic	-11.6352
▁defense	-11.6355
du	-11.6356
▁liêng	-11.6357
▁December	-11.6358
▁rã	-11.6359
su	-11.6363
▁Eve	-11.6367
▁dropping	-11.6367
▁Watch	-11.6368
▁đèo	-11.6372
▁Điệp	-11.6375
▁tension	-11.6375
▁Ke	-11.6376
▁Asus	-11.6376
▁Off	-11.6376
yl	-11.6378
ap	-11.6382
▁singing	-11.6382
▁Help	-11.6384
▁Qur	-11.6384
▁chưng	-11.6385
Người	-11.6389
▁Jackson	-11.6392
▁broad	-11.6393
▁xua	-11.6396
▁NHNN	-11.6396
▁Blood	-11.6397
▁Auto	-11.64
▁sập	-11.6403
▁khắt	-11.6405
▁grave	-11.6407
▁HỌC	-11.6408
▁scanned	-11.6413
▁filling	-11.6418
▁chen	-11.6419
▁arrival	-11.6423
▁TY	-11.6425
▁fabric	-11.6428
▁struggling	-11.6432
▁servant	-11.6435
▁thy	-11.6437
▁blank	-11.6441
▁financial	-11.6444
▁adult	-11.6446
▁Quyên	-11.6447
▁mere	-11.645
▁confident	-11.6458
fi	-11.6458
▁Sean	-11.6459
▁gathering	-11.6465
▁trù	-11.647
▁passion	-11.6471
ff	-11.6472
▁bổn	-11.6473
▁nghẽn	-11.6474
▁Cuốn	-11.6476
▁plants	-11.6477
▁flower	-11.6478
▁Inside	-11.6479
▁raced	-11.6484
▁echoed	-11.6487
▁central	-11.6492
▁courage	-11.6493
▁childhood	-11.6497
▁Cán	-11.65
▁Nobody	-11.65
▁vấp	-11.65
▁Hu	-11.65
▁quế	-11.6504
▁sought	-11.6504
▁Micro	-11.6505
▁enormous	-11.6505
▁Cáp	-11.6505
sk	-11.6505
▁presented	-11.6507
▁phở	-11.6508
▁showroom	-11.6508
▁Cân	-11.6508
▁regret	-11.6509
▁primary	-11.651
▁mút	-11.6511
fa	-11.6511
▁Pacific	-11.6511
jo	-11.6512
▁operation	-11.6517
▁thính	-11.6525
ries	-11.6529
Con	-11.6533
▁existed	-11.6533
▁appropriate	-11.6535
▁Mini	-11.6538
▁cày	-11.654
ến	-11.6541
▁Tracy	-11.6541
▁Rõ	-11.6542
▁chần	-11.6544
▁standard	-11.6544
▁judgment	-11.6545
▁models	-11.6546
▁sing	-11.6546
▁equal	-11.6546
▁uncle	-11.6549
▁ATM	-11.6555
gar	-11.6555
▁CV	-11.6559
▁tủy	-11.656
▁biggest	-11.6561
▁pregnant	-11.6563
▁endless	-11.6564
▁giơ	-11.6564
▁drifted	-11.6565
▁hd	-11.6567
▁QH	-11.6567
▁kinds	-11.6569
▁Thưa	-11.657
▁entry	-11.6572
▁council	-11.6572
▁Ph	-11.6572
Có	-11.6574
book	-11.6576
res	-11.6578
▁nano	-11.6578
Anh	-11.6579
▁Cole	-11.658
▁sins	-11.6582
▁Gió	-11.6586
▁Phóng	-11.6586
▁Dục	-11.6587
▁Saint	-11.6589
▁Po	-11.6592
▁grabbing	-11.6594
▁bẫy	-11.6595
▁Apparently	-11.6597
▁seated	-11.6598
uk	-11.66
▁Thuyết	-11.6609
▁generally	-11.6614
▁gripped	-11.6617
▁Hope	-11.662
▁dealing	-11.6622
▁úy	-11.6623
▁LA	-11.6629
▁kìm	-11.6631
▁popped	-11.6637
▁Nổi	-11.6637
▁võng	-11.6639
▁NN	-11.6639
▁Đệ	-11.6639
▁CSGT	-11.664
▁Having	-11.664
▁Trãi	-11.6645
▁curled	-11.6646
▁Khung	-11.6646
op	-11.6647
▁purse	-11.6649
▁satisfied	-11.6654
▁ê	-11.6655
▁Pre	-11.6655
▁Đứng	-11.6657
▁mào	-11.6659
▁lách	-11.6661
▁generation	-11.6662
▁impression	-11.6662
▁tools	-11.6663
ud	-11.6667
▁moral	-11.6668
▁hán	-11.667
▁trapped	-11.6677
ệ	-11.6678
▁ngửa	-11.6679
▁dc	-11.6681
▁liếm	-11.6682
▁stern	-11.6685
án	-11.6687
▁atmosphere	-11.669
▁urge	-11.6691
▁facts	-11.6691
▁ending	-11.6691
▁Within	-11.6692
▁captured	-11.6692
▁mẫn	-11.6694
▁Gói	-11.6696
▁Angeles	-11.6698
▁shore	-11.6701
▁app	-11.6707
▁Francisco	-11.6708
▁Major	-11.6711
▁sensed	-11.6713
▁Thor	-11.6714
▁Marie	-11.6719
ure	-11.6719
▁kíp	-11.6721
sy	-11.6722
▁Florida	-11.6725
▁magical	-11.6725
▁mumbled	-11.6725
▁Net	-11.6725
▁tool	-11.6726
▁tucked	-11.6728
▁Bàng	-11.6729
▁còi	-11.6729
▁killer	-11.6729
▁failure	-11.673
▁Mason	-11.6733
▁UV	-11.6736
▁servants	-11.6737
▁shed	-11.6738
▁App	-11.6739
▁trêu	-11.6742
▁Val	-11.6743
▁unconscious	-11.6744
▁Dư	-11.6745
▁phồng	-11.6748
ology	-11.675
▁Kẻ	-11.675
▁Bangkok	-11.6753
▁rãnh	-11.6753
▁spare	-11.6755
▁devil	-11.6758
▁sensation	-11.676
▁delivered	-11.6762
▁collar	-11.6763
▁dau	-11.6764
▁basis	-11.6767
▁Phối	-11.6768
▁ngốc	-11.6768
▁yards	-11.677
▁Đoạn	-11.6773
ex	-11.6774
▁vanished	-11.6774
▁trial	-11.6775
mp	-11.6776
▁hé	-11.6779
▁Neither	-11.6779
▁reflection	-11.6779
▁individuals	-11.6779
▁fa	-11.6785
▁liếc	-11.6788
▁sugar	-11.6794
▁alcohol	-11.6797
▁studying	-11.6797
▁khốn	-11.6799
▁nhàn	-11.6801
▁smelled	-11.6804
▁downstairs	-11.6808
ER	-11.6808
▁Kat	-11.6811
▁branch	-11.6812
▁yoga	-11.6814
ip	-11.6814
CO	-11.682
▁Josh	-11.6821
▁Hạng	-11.6821
▁ngả	-11.6822
▁September	-11.6822
▁identity	-11.6822
▁Way	-11.6822
▁July	-11.6824
▁decisions	-11.6825
▁Xingfa	-11.6828
ship	-11.6828
▁currently	-11.6828
▁tặc	-11.6832
▁nhấc	-11.6834
▁secrets	-11.6835
▁tụt	-11.6836
▁switch	-11.6837
▁demand	-11.6838
star	-11.6844
▁cards	-11.6845
▁international	-11.6845
▁Mitsubishi	-11.6848
▁Face	-11.685
▁port	-11.685
▁Head	-11.6851
▁Probably	-11.6851
▁pulls	-11.6851
▁tụi	-11.6852
▁grandfather	-11.6854
▁Đằng	-11.6857
▁Jordan	-11.6857
▁Silver	-11.6859
▁Vé	-11.6861
out	-11.6861
▁mystery	-11.6862
▁Dream	-11.6863
▁Edition	-11.6865
▁Aura	-11.6867
▁Sydney	-11.6868
▁Girl	-11.6871
▁dawn	-11.6871
▁flame	-11.6871
▁sales	-11.6874
▁Jones	-11.6875
▁NG	-11.6877
▁Dave	-11.6877
▁Troll	-11.6881
ada	-11.6883
▁quyện	-11.6885
▁Through	-11.6885
▁ST	-11.6887
▁greeted	-11.689
wa	-11.6894
▁VOV	-11.6897
▁Margaret	-11.6897
▁scattered	-11.6901
▁Bè	-11.6901
▁Mitch	-11.6904
▁Empire	-11.6906
▁Chữa	-11.6911
▁Tui	-11.6914
▁dug	-11.6917
▁xoang	-11.6918
ger	-11.6922
▁Box	-11.6927
▁Nice	-11.6927
ếch	-11.6929
▁Sứ	-11.6931
▁likes	-11.6932
▁bồng	-11.6936
▁gáy	-11.6941
▁guessed	-11.6942
▁identified	-11.6944
▁Chicago	-11.6947
▁achieve	-11.6947
▁Thú	-11.6947
▁chuồng	-11.6947
▁Several	-11.695
▁fourth	-11.695
▁threatened	-11.695
▁Jose	-11.6953
▁Fuck	-11.6953
▁deserve	-11.6953
▁Quỷ	-11.6953
▁moi	-11.6958
▁Gwen	-11.6959
▁Jonathan	-11.6961
▁Gỗ	-11.6962
▁hinh	-11.6963
▁flowing	-11.6964
IA	-11.6967
▁DJ	-11.6971
▁centuries	-11.6979
▁supplies	-11.6979
▁khưu	-11.6979
▁millions	-11.698
▁Ram	-11.698
▁Chevrolet	-11.6982
▁clenched	-11.6982
▁fur	-11.6987
▁motioned	-11.6988
ow	-11.6991
▁towel	-11.6992
▁bat	-11.6993
▁Mind	-11.6993
▁Hợi	-11.6994
▁slowed	-11.6994
▁dull	-11.6996
▁bell	-11.6997
▁global	-11.6997
▁cop	-11.7
▁Biến	-11.7001
▁article	-11.7002
▁Tóc	-11.7003
▁awkward	-11.7005
▁Jewish	-11.7005
▁brush	-11.7006
▁Sy	-11.7006
ez	-11.7011
▁Collagen	-11.7011
▁Yamaha	-11.7011
▁drank	-11.7012
TM	-11.7012
▁thửa	-11.7014
▁Ri	-11.7019
▁Cấu	-11.7022
▁estate	-11.7023
▁hid	-11.7024
▁Jong	-11.7027
▁BT	-11.7028
▁armed	-11.7029
▁capital	-11.7035
▁Egypt	-11.7037
▁Amber	-11.7037
▁youth	-11.7041
▁jail	-11.7043
▁Kênh	-11.7044
▁VTC	-11.7044
▁PA	-11.7047
▁Ngư	-11.7048
▁teachers	-11.7057
▁đái	-11.7063
▁Got	-11.7064
▁Ổ	-11.7064
▁declared	-11.7065
▁Second	-11.7065
▁additional	-11.7066
▁measure	-11.7067
▁Khuê	-11.7068
▁Travel	-11.7069
▁Houston	-11.707
▁importance	-11.707
▁chọi	-11.707
▁bastard	-11.707
▁nung	-11.7077
ig	-11.7078
ờ	-11.708
▁Phản	-11.7087
▁seats	-11.7088
▁argue	-11.7088
▁Susan	-11.709
ily	-11.7091
▁tho	-11.7094
▁Nhị	-11.7095
▁Eventually	-11.7096
▁pillow	-11.7097
▁tẩm	-11.7098
▁suffered	-11.71
▁tống	-11.71
▁FC	-11.7102
▁feared	-11.7104
▁disappear	-11.7104
▁bullet	-11.7105
▁Xperia	-11.7111
▁ordinary	-11.7114
field	-11.7115
▁thung	-11.7115
▁Nathan	-11.7116
▁ego	-11.7117
▁Er	-11.7118
▁Hạn	-11.7119
▁completed	-11.7123
▁fairly	-11.7123
▁practically	-11.7128
▁embarrassed	-11.7129
▁louder	-11.7131
▁Moscow	-11.7132
▁require	-11.7132
▁fists	-11.7135
▁nấy	-11.7135
▁mốt	-11.714
side	-11.7141
▁Thử	-11.7145
ped	-11.7145
▁huh	-11.7146
▁Đương	-11.715
▁rạch	-11.715
▁multi	-11.7154
ase	-11.7155
▁steal	-11.7162
▁essential	-11.7162
▁collapsed	-11.7164
▁Seoul	-11.7165
▁Chief	-11.7165
▁hip	-11.7165
▁besides	-11.7167
–	-11.7167
▁GDVN	-11.7168
▁Cải	-11.7173
▁frightened	-11.7174
▁khuynh	-11.7177
▁thrust	-11.7177
▁Oanh	-11.7181
▁coin	-11.7185
▁Moses	-11.7186
▁identify	-11.7187
▁Domain	-11.7189
▁colors	-11.7191
▁Pi	-11.7194
▁Hè	-11.7206
▁gates	-11.7209
▁Vu	-11.7209
▁immediate	-11.7216
▁eyebrow	-11.7216
▁sooner	-11.7216
▁rên	-11.7218
▁bra	-11.7221
▁suspected	-11.7231
â	-11.7237
▁stops	-11.7237
▁agents	-11.7239
pro	-11.7239
▁raising	-11.7239
▁committed	-11.7248
▁jerked	-11.725
▁sáo	-11.7251
▁Lân	-11.7253
▁slapped	-11.7254
▁Were	-11.7254
▁adventure	-11.7255
▁startled	-11.7256
▁lean	-11.7257
▁Vol	-11.7258
▁Fa	-11.726
▁literally	-11.7261
▁writer	-11.7262
▁Nền	-11.7267
▁murmured	-11.727
▁VP	-11.7271
▁drag	-11.7275
▁Zen	-11.7276
▁hero	-11.7276
▁impressed	-11.7277
▁companies	-11.7278
▁pressing	-11.7282
▁defeat	-11.7286
ù	-11.7287
LE	-11.7288
▁Baby	-11.7292
▁Ruby	-11.7294
▁Thạc	-11.7296
▁settle	-11.7297
▁Ebook	-11.7298
▁violent	-11.73
▁WC	-11.7305
▁overcome	-11.7306
▁sale	-11.7309
▁MS	-11.7311
▁Nho	-11.7314
▁Owen	-11.7316
▁arrow	-11.7319
▁né	-11.7321
▁Nate	-11.7321
lon	-11.7331
▁Bổ	-11.7331
▁Alfred	-11.7336
▁chan	-11.7337
▁bói	-11.7341
▁defend	-11.7342
▁sports	-11.7345
ors	-11.7346
▁Sport	-11.7347
▁Cốc	-11.7349
▁craft	-11.735
▁VIP	-11.7351
▁CR	-11.7352
▁belong	-11.7355
van	-11.7355
ay	-11.7359
▁thuở	-11.736
ny	-11.7362
▁footsteps	-11.7366
▁Rượu	-11.7369
▁network	-11.7373
AL	-11.7374
▁dông	-11.7374
▁mile	-11.7378
▁criminal	-11.7379
▁tấp	-11.7381
▁Faith	-11.7385
▁random	-11.7385
▁tsu	-11.7387
▁whoever	-11.7388
▁palace	-11.739
▁narrowed	-11.7391
▁xoài	-11.7394
▁visited	-11.7394
▁SIM	-11.7395
▁flipped	-11.7397
▁catching	-11.7397
▁stepping	-11.7398
▁Cat	-11.7404
▁Mơ	-11.7405
▁ad	-11.7406
▁classes	-11.741
▁shelter	-11.7415
▁reports	-11.7415
▁brave	-11.7419
▁resist	-11.742
▁glare	-11.742
▁Catholic	-11.7422
▁boxes	-11.7422
▁tracks	-11.7424
▁Lucky	-11.7424
▁nhát	-11.7426
▁Institute	-11.7428
let	-11.7429
▁directed	-11.743
▁Đốc	-11.7434
▁disbelief	-11.7439
▁published	-11.744
▁solution	-11.7441
▁skill	-11.7444
▁controlled	-11.7444
▁Class	-11.7444
▁Tý	-11.7446
▁ben	-11.7448
▁bệ	-11.745
▁Sha	-11.745
▁records	-11.7454
▁Giữ	-11.7455
▁Rebecca	-11.7458
ence	-11.7462
▁Heart	-11.7462
▁contract	-11.7462
▁floating	-11.7466
off	-11.7469
▁BOT	-11.747
▁player	-11.7474
▁Rau	-11.7475
▁viet	-11.7476
▁phàm	-11.7477
▁sunlight	-11.748
▁blessed	-11.749
▁Indeed	-11.7495
▁bới	-11.7496
▁screams	-11.7499
▁Until	-11.7501
▁xướng	-11.7501
▁collection	-11.7502
▁eaten	-11.7503
▁communication	-11.7507
▁root	-11.7508
▁Mũi	-11.7508
▁xíu	-11.7509
▁ridiculous	-11.7511
▁nervously	-11.7512
▁nghênh	-11.7513
▁nỉ	-11.7514
▁nức	-11.7515
▁Milan	-11.7518
▁stunned	-11.7519
▁ion	-11.7522
▁string	-11.7526
▁rán	-11.753
▁Xương	-11.7532
▁DA	-11.7535
▁disappointed	-11.7535
▁Boy	-11.7541
▁Nancy	-11.7541
▁Has	-11.7543
▁Chư	-11.7544
▁deliver	-11.7546
▁AB	-11.7548
▁excellent	-11.7553
▁Nor	-11.7554
▁Middle	-11.7556
▁chùi	-11.7556
▁heal	-11.7558
▁owned	-11.7561
▁emergency	-11.7563
▁mAh	-11.7563
▁dì	-11.7564
▁Hal	-11.7566
▁alert	-11.7566
▁KHÔNG	-11.7569
▁marked	-11.7571
▁passenger	-11.7571
IC	-11.7572
▁combat	-11.7573
▁Prophet	-11.7573
▁tray	-11.7574
▁troops	-11.7579
▁chief	-11.7581
▁objects	-11.7581
▁Cap	-11.7583
▁speaks	-11.7583
▁TX	-11.7584
▁studio	-11.7588
▁Army	-11.7592
▁Lòng	-11.7592
▁cities	-11.7595
▁majority	-11.7601
▁bái	-11.7601
▁xẻ	-11.7603
▁skirt	-11.7605
▁tape	-11.7606
▁bath	-11.7606
▁Yu	-11.7607
▁youtube	-11.7609
▁Marco	-11.7611
▁sảng	-11.7612
▁Gary	-11.7612
▁absolute	-11.7613
▁Golf	-11.7613
▁Croatia	-11.7615
▁hỷ	-11.7616
▁Tra	-11.7618
▁TƯ	-11.7618
▁shouting	-11.7619
rk	-11.7619
▁Thìn	-11.7622
▁rubbing	-11.7625
▁Leave	-11.763
▁crap	-11.7632
▁vv	-11.7635
▁Răng	-11.7641
ola	-11.7642
▁curiosity	-11.7643
▁Research	-11.7643
▁awareness	-11.7645
MA	-11.7647
▁bill	-11.7647
▁Tượng	-11.7648
▁personality	-11.7648
rat	-11.7648
▁Evan	-11.7649
▁lừng	-11.765
▁bin	-11.7652
▁hissed	-11.7652
▁Bức	-11.7653
▁Dis	-11.7658
▁react	-11.7658
ella	-11.7659
▁Put	-11.7659
▁Revelation	-11.7665
▁Gặp	-11.7667
▁index	-11.7667
▁Panasonic	-11.7668
▁knocking	-11.7669
▁pizza	-11.7672
tre	-11.7674
▁determine	-11.7677
▁Mộng	-11.768
▁Mum	-11.7683
▁hormone	-11.7684
▁tinted	-11.7686
▁bars	-11.7686
▁PP	-11.7687
▁Quạt	-11.7691
ck	-11.7691
▁numerous	-11.7694
▁nộ	-11.7696
▁Self	-11.7699
▁Warren	-11.77
▁chập	-11.7703
au	-11.7707
▁Snow	-11.7716
▁nations	-11.7718
▁Premium	-11.7719
▁GTGT	-11.7719
head	-11.7722
▁harsh	-11.7723
▁stock	-11.7724
▁gesture	-11.7728
▁froze	-11.7728
▁đả	-11.773
ix	-11.7732
▁dried	-11.7732
▁Nan	-11.7733
▁MobiFone	-11.7734
▁casino	-11.7734
▁climate	-11.7734
▁nhúng	-11.7736
▁cursed	-11.7737
▁pretend	-11.774
▁movements	-11.7741
▁salt	-11.7741
ens	-11.7741
▁Danielle	-11.7742
▁mat	-11.7743
▁Alright	-11.7744
▁performed	-11.7745
▁previously	-11.7746
▁CC	-11.7747
▁prayed	-11.775
▁chill	-11.7754
▁Nicolaus	-11.7757
▁cops	-11.7761
▁driveway	-11.7764
▁manager	-11.7766
▁Pat	-11.7769
▁twin	-11.7771
▁Beach	-11.7771
▁products	-11.7771
▁Allison	-11.7773
▁vali	-11.7773
▁January	-11.7776
▁sip	-11.7777
▁sharing	-11.7779
▁sits	-11.7782
▁Justin	-11.7782
▁placing	-11.7782
▁sank	-11.7785
▁UP	-11.7786
▁Point	-11.7787
▁Mc	-11.7788
▁tore	-11.7792
▁Ku	-11.7797
▁sliding	-11.7797
▁Global	-11.7798
▁causes	-11.7798
▁waters	-11.78
▁Shit	-11.7805
▁homes	-11.7805
▁cuống	-11.7811
▁lust	-11.7815
▁valley	-11.7816
▁trướng	-11.7817
▁tụy	-11.7817
▁NV	-11.7821
▁deny	-11.7823
▁separated	-11.7824
▁trusted	-11.7824
▁entering	-11.7824
▁Town	-11.7827
ks	-11.7829
▁eager	-11.783
▁Diệm	-11.783
▁Fred	-11.7834
▁idiot	-11.7834
▁Taking	-11.7838
her	-11.7839
vin	-11.784
▁Chồng	-11.784
▁proved	-11.7841
▁investigation	-11.7841
▁Security	-11.7842
▁customers	-11.7845
▁swing	-11.7846
▁attend	-11.785
▁destination	-11.7852
▁landscape	-11.7852
▁realm	-11.7858
ric	-11.7861
▁ngấm	-11.7862
▁Muslims	-11.7862
▁PTNT	-11.7862
▁Won	-11.7864
▁cleaning	-11.7865
▁dim	-11.7865
▁blast	-11.7867
ét	-11.787
▁conflict	-11.7872
▁CIA	-11.7874
▁thề	-11.7876
▁goodbye	-11.7876
▁Cử	-11.788
▁cc	-11.788
▁Vn	-11.7882
▁PVC	-11.7883
▁Lên	-11.7883
▁consequences	-11.7886
▁sọc	-11.7887
▁haired	-11.7889
▁HTX	-11.7889
▁holes	-11.7891
▁anxious	-11.7894
▁chicken	-11.7895
▁Russian	-11.7895
▁Jesse	-11.7896
▁cousin	-11.7896
▁Thép	-11.7897
▁crash	-11.7898
▁useless	-11.7899
▁sheets	-11.7903
▁muscle	-11.7903
▁Kurt	-11.7903
▁cart	-11.7903
▁marks	-11.7906
▁YouTube	-11.7906
▁carpet	-11.7906
▁CPU	-11.7912
▁hệt	-11.7912
▁strategy	-11.7913
▁attractive	-11.7913
▁ABS	-11.7915
▁trunk	-11.7915
▁waving	-11.7916
▁figures	-11.7917
▁Góc	-11.7919
▁sounding	-11.792
▁nhủ	-11.7921
▁Clay	-11.7922
▁salad	-11.7924
▁THÔNG	-11.7926
▁aunt	-11.7926
▁Shi	-11.7927
▁Twenty	-11.7929
▁VC	-11.7929
▁tale	-11.7929
▁folks	-11.7931
ding	-11.7932
▁ầm	-11.7934
ala	-11.7935
▁Um	-11.7935
▁hạm	-11.7936
▁prior	-11.7939
▁VAT	-11.7939
▁mẩn	-11.7947
▁mùng	-11.7948
▁Health	-11.7955
▁ME	-11.7956
▁trăn	-11.7957
ide	-11.7959
▁Jennifer	-11.7961
▁HÀNG	-11.7961
CC	-11.7962
▁sucked	-11.7963
▁hunting	-11.7968
ven	-11.7969
▁Oppo	-11.797
▁Store	-11.797
▁Samuel	-11.7971
sing	-11.7974
Ã	-11.7975
▁Dead	-11.7975
▁Ngưu	-11.7976
▁Shin	-11.7977
▁Nhắc	-11.7977
▁Martha	-11.7977
▁rót	-11.798
▁xoáy	-11.7987
▁Palace	-11.7987
han	-11.7988
▁bleeding	-11.7988
▁performance	-11.7989
que	-11.799
▁dis	-11.7992
▁GV	-11.7992
▁Gel	-11.7993
▁wounds	-11.8
▁trau	-11.8001
▁serving	-11.8003
▁Gar	-11.8003
▁Thiệu	-11.8003
▁internal	-11.8004
▁Ngã	-11.8004
▁đôn	-11.8007
▁friendship	-11.8009
▁Society	-11.8013
▁grief	-11.8016
▁thềm	-11.8018
▁nasty	-11.8019
▁PT	-11.802
▁warriors	-11.802
▁Amanda	-11.8026
▁Trust	-11.8026
▁gu	-11.803
▁contents	-11.803
▁giggled	-11.8034
▁SE	-11.8034
▁Bính	-11.8036
▁trap	-11.8037
▁Audio	-11.8037
TP	-11.8038
▁Niệm	-11.8039
▁torture	-11.8043
▁parties	-11.8045
tự	-11.8047
▁habit	-11.8048
▁táng	-11.8048
▁Grab	-11.8048
▁initial	-11.8049
▁latest	-11.805
▁Islamic	-11.8051
▁Ả	-11.8054
▁bike	-11.806
▁gotta	-11.806
▁CNC	-11.8061
▁grade	-11.8061
▁vụn	-11.8062
▁Sâm	-11.8063
Những	-11.8067
▁AS	-11.8071
▁hunt	-11.8071
▁lì	-11.8074
▁tảo	-11.8075
ver	-11.8081
▁sum	-11.8083
link	-11.8086
▁Key	-11.8086
▁elements	-11.8087
▁perspective	-11.809
▁Len	-11.8096
▁vựng	-11.8097
ụ	-11.8098
lt	-11.8098
▁gòn	-11.81
ville	-11.81
▁Toshiba	-11.8101
▁Road	-11.8102
▁GPS	-11.8105
▁document	-11.8109
▁cruel	-11.8111
▁Vài	-11.8114
▁Hát	-11.8115
▁revealing	-11.8116
▁Diamond	-11.812
▁incredible	-11.8123
▁đấm	-11.8127
▁BCH	-11.8132
▁wing	-11.8133
▁silk	-11.8133
▁movies	-11.8135
▁neo	-11.8139
▁Liz	-11.8145
▁ngẩng	-11.8147
▁Audi	-11.8147
ane	-11.8148
▁survived	-11.8148
▁Kor	-11.8152
▁ngơ	-11.8153
▁bênh	-11.8153
▁anxiety	-11.8153
▁patted	-11.8153
▁Happy	-11.8153
▁parent	-11.8154
▁tank	-11.8155
▁Edward	-11.8157
▁mysterious	-11.8157
▁photos	-11.8158
▁discussed	-11.8159
▁xôn	-11.816
▁Control	-11.8161
▁nhớt	-11.8161
▁region	-11.8164
▁sạm	-11.8166
▁preparing	-11.8169
▁loaded	-11.8171
board	-11.8181
có	-11.8184
▁shortly	-11.8186
▁lữ	-11.8186
▁brilliant	-11.8187
▁Hạo	-11.8189
▁personally	-11.8189
▁Fan	-11.8191
▁Sophia	-11.8193
▁Muslim	-11.8196
▁bọ	-11.8197
▁vần	-11.8199
ette	-11.82
▁hèn	-11.8201
▁pockets	-11.8202
▁clue	-11.8202
▁Nhan	-11.8203
▁accent	-11.8206
▁spinning	-11.821
▁intention	-11.8211
▁Genesis	-11.8216
▁ounce	-11.8216
▁airport	-11.8217
▁Hart	-11.8218
▁carriage	-11.8219
▁Bột	-11.8221
▁Tara	-11.8223
▁ngói	-11.8224
▁GHz	-11.8226
▁citizens	-11.8227
▁selling	-11.8227
▁gestured	-11.8228
▁blocks	-11.8229
▁biếu	-11.8229
▁Đồn	-11.8231
▁photocopy	-11.8232
▁Admiral	-11.8235
▁valuable	-11.8239
ther	-11.824
▁intent	-11.8243
▁Jade	-11.8247
▁princess	-11.8249
▁palms	-11.8249
▁injured	-11.8252
▁vữa	-11.8253
▁arranged	-11.8253
▁lied	-11.8255
▁Thuột	-11.8256
▁routine	-11.8263
▁saving	-11.8266
▁Hắc	-11.8267
▁Hunter	-11.8267
▁lessons	-11.8271
▁rarely	-11.8272
▁shining	-11.8273
tri	-11.8276
▁auto	-11.8282
▁khóe	-11.8283
Ta	-11.8284
▁senior	-11.8285
▁Suzuki	-11.8285
▁abilities	-11.8287
▁Dật	-11.829
▁organization	-11.8291
▁SA	-11.8291
▁út	-11.8292
▁SC	-11.8296
▁Ocean	-11.8299
tro	-11.8303
▁nods	-11.8303
▁MA	-11.8305
ư	-11.8306
▁Inox	-11.8307
▁trembling	-11.8309
▁damned	-11.8312
▁Doc	-11.8312
▁vá	-11.8315
ative	-11.8316
▁hốt	-11.8319
▁phôi	-11.8321
▁Author	-11.8322
▁president	-11.8322
▁falls	-11.8322
▁basement	-11.8324
▁pounding	-11.8325
▁Name	-11.8326
▁lóc	-11.8326
sin	-11.8328
▁furniture	-11.8329
▁relationships	-11.8329
▁android	-11.8336
▁chuộc	-11.8336
▁alley	-11.8336
mit	-11.8337
▁mist	-11.8338
▁ngạo	-11.8339
▁br	-11.8341
ene	-11.8343
▁Brad	-11.8343
▁Surely	-11.8345
▁possessed	-11.8352
qui	-11.8353
▁threatening	-11.8354
▁Ver	-11.8354
stone	-11.8359
▁Ít	-11.8359
▁khong	-11.8365
▁Core	-11.8365
▁cheap	-11.8366
▁Luyện	-11.8376
▁hổng	-11.8378
▁highest	-11.8382
▁salvation	-11.8382
▁Sol	-11.8384
▁Sergeant	-11.8386
▁Alexander	-11.8386
▁Dog	-11.8387
▁chèo	-11.8387
▁delight	-11.8392
▁department	-11.8393
▁wounded	-11.8397
Khi	-11.8398
ll	-11.8399
▁lawyer	-11.8399
med	-11.8403
▁continuing	-11.8406
▁essence	-11.8406
▁stretch	-11.8409
▁elbow	-11.841
ised	-11.841
▁Mão	-11.841
▁AD	-11.841
▁hopes	-11.8413
▁tries	-11.8415
▁crawled	-11.8415
▁ấu	-11.8419
▁Vincity	-11.842
▁Bông	-11.8421
▁AR	-11.8422
nic	-11.8423
▁Chiết	-11.8424
box	-11.8425
▁pistol	-11.8426
▁tp	-11.8427
▁Dallas	-11.843
▁Arab	-11.8431
▁coast	-11.8431
Một	-11.8431
▁examined	-11.8432
▁thốt	-11.8432
▁Colour	-11.8433
▁Cự	-11.8434
▁puzzled	-11.8434
▁Eden	-11.8435
▁Data	-11.8438
▁Vọng	-11.844
▁mồm	-11.844
▁nể	-11.8445
ium	-11.8448
▁quai	-11.8449
gen	-11.8453
az	-11.8453
▁URL	-11.8457
▁Cor	-11.8458
▁DV	-11.8459
▁Brother	-11.8465
▁mode	-11.8466
▁punch	-11.8467
▁Chiêu	-11.8468
work	-11.847
▁admin	-11.847
ile	-11.8471
▁distracted	-11.8475
▁méo	-11.8477
▁trigger	-11.8478
▁quarter	-11.8479
▁háo	-11.848
▁Muse	-11.848
▁ebook	-11.8482
▁pulse	-11.8483
▁Princess	-11.8485
▁sạt	-11.8485
▁bướm	-11.8487
▁questioned	-11.8489
gu	-11.8489
▁vung	-11.849
▁Cánh	-11.8492
▁safely	-11.8495
è	-11.8501
ik	-11.8501
▁companion	-11.8501
▁Huyết	-11.8501
▁lonely	-11.8502
▁African	-11.8504
▁Sh	-11.8505
▁desires	-11.8505
▁seemingly	-11.8506
bu	-11.8509
▁cab	-11.8509
ở	-11.8511
▁Thang	-11.8514
▁Canon	-11.8514
▁Ống	-11.8515
▁apparent	-11.8515
▁Jackie	-11.8523
▁đán	-11.8525
▁Press	-11.8526
tel	-11.8526
▁express	-11.8527
▁Eddie	-11.8528
▁lover	-11.853
▁giỏ	-11.853
▁vãng	-11.8531
▁Company	-11.8532
▁Boston	-11.8532
▁Down	-11.8532
TS	-11.8533
▁Ranh	-11.8539
▁Jin	-11.8542
▁MTV	-11.8542
max	-11.8544
▁IQ	-11.8545
▁dep	-11.8545
▁terrified	-11.8549
▁fiction	-11.8551
▁Cặp	-11.8553
▁heavens	-11.8555
▁shade	-11.8557
▁Isn	-11.8558
▁Testament	-11.8559
▁pH	-11.8559
▁channel	-11.8559
ked	-11.856
▁physically	-11.8565
▁November	-11.8566
▁dumb	-11.8567
▁scientists	-11.8567
cy	-11.8567
▁Non	-11.8568
▁Didn	-11.8571
▁hood	-11.8577
▁raw	-11.8578
▁trói	-11.858
▁quarters	-11.858
▁băm	-11.858
▁mênh	-11.8582
▁sensitive	-11.8583
nt	-11.8584
▁Juventus	-11.8586
▁ignoring	-11.8586
▁gasp	-11.8587
▁lụy	-11.859
▁FA	-11.8592
▁forcing	-11.8593
▁Mại	-11.8597
▁bothered	-11.86
car	-11.8601
▁critical	-11.8602
▁lờ	-11.8603
▁rô	-11.8605
▁Jenny	-11.8607
▁mortal	-11.8607
▁Daddy	-11.8611
▁delay	-11.8612
ram	-11.8612
▁fog	-11.8615
▁encounter	-11.8618
▁Giọng	-11.8621
▁decades	-11.8622
▁collect	-11.8623
▁han	-11.8625
▁newspaper	-11.8625
▁Nano	-11.8625
ì	-11.8626
▁uses	-11.8627
▁Patrick	-11.8628
▁ngó	-11.8635
ino	-11.8639
▁vâng	-11.8641
▁fuel	-11.8642
▁Secret	-11.8642
▁răn	-11.8644
▁Ngưng	-11.8646
▁characters	-11.8647
▁tru	-11.865
▁closest	-11.8656
▁fishing	-11.8656
ius	-11.8658
▁Chuyến	-11.866
▁wandered	-11.8661
▁Vỏ	-11.8665
▁belonged	-11.8666
ford	-11.8673
▁outer	-11.8673
ể	-11.8673
▁unlike	-11.8674
▁foundation	-11.8678
▁commanded	-11.8678
▁aim	-11.868
▁Dean	-11.8681
▁cửu	-11.8684
▁Khúc	-11.8686
▁pet	-11.8687
▁backward	-11.8689
▁thắm	-11.869
iness	-11.8693
▁beard	-11.8693
▁trailer	-11.8697
▁dứa	-11.8699
▁ki	-11.8699
▁buốt	-11.87
▁transport	-11.8705
▁gifts	-11.8715
▁messages	-11.8718
▁leapt	-11.8719
▁op	-11.8731
▁honestly	-11.8733
▁reflected	-11.8734
▁Trân	-11.8735
▁hills	-11.8736
▁mouse	-11.8736
▁naturally	-11.8737
▁symbol	-11.8738
▁racing	-11.8741
time	-11.8741
▁Change	-11.8742
ika	-11.8742
▁crept	-11.8746
▁volume	-11.8746
▁TIN	-11.8747
▁mod	-11.8749
▁signed	-11.8752
▁reward	-11.8753
▁Gem	-11.8753
▁lands	-11.8756
▁medicine	-11.8756
▁sets	-11.8757
▁explore	-11.8757
▁reaches	-11.8757
▁description	-11.876
▁aimed	-11.8763
▁Vladimir	-11.8767
▁Messenger	-11.8767
▁Stay	-11.8769
▁knelt	-11.877
▁miệt	-11.877
▁swiftly	-11.8775
▁protest	-11.8777
▁Đưa	-11.8777
▁barn	-11.8778
▁tend	-11.878
Em	-11.878
▁puts	-11.8781
▁conclusion	-11.8781
▁snorted	-11.8781
▁engaged	-11.8782
▁Janet	-11.8784
▁Pearl	-11.8784
▁Hào	-11.8787
▁phách	-11.8787
▁collected	-11.8787
▁Eye	-11.8789
▁Bỏ	-11.8794
▁Pe	-11.8795
▁Bưu	-11.8796
▁Jill	-11.8802
▁blocked	-11.8802
ã	-11.8803
▁Adem	-11.8804
▁genes	-11.8806
ds	-11.8809
▁gut	-11.881
▁Academy	-11.8812
▁Nắm	-11.8813
san	-11.8814
▁mol	-11.8816
▁Truth	-11.8816
▁cycle	-11.8816
▁hcm	-11.8817
▁Hank	-11.8818
▁CTCP	-11.8819
▁sleeve	-11.882
▁Americans	-11.8821
▁helps	-11.8826
▁abruptly	-11.8827
▁Prime	-11.8828
Th	-11.8828
▁Kha	-11.8829
▁mighty	-11.8829
ân	-11.8832
▁Thùng	-11.8834
om	-11.8839
▁extreme	-11.8841
một	-11.8841
▁Tiffany	-11.8844
▁finds	-11.8845
▁Bates	-11.8847
▁sized	-11.8853
▁quit	-11.8856
▁Robot	-11.8857
▁văng	-11.8857
▁unexpected	-11.8859
ari	-11.886
oo	-11.8861
▁Tech	-11.8861
▁improve	-11.8862
▁pp	-11.8863
▁Nhược	-11.8865
cu	-11.8867
▁widened	-11.887
▁verses	-11.887
▁attacks	-11.8871
▁nóc	-11.8875
▁competition	-11.8875
▁Dong	-11.8876
▁lifting	-11.8876
▁NHÀ	-11.8882
▁tense	-11.8886
▁cloak	-11.8888
▁vote	-11.8891
▁Ja	-11.8891
▁Julian	-11.8895
▁Sal	-11.8898
SE	-11.8899
▁Wifi	-11.8901
▁Eli	-11.8902
▁covers	-11.8904
▁lon	-11.8905
▁tightened	-11.8905
▁Ji	-11.8906
▁CSVN	-11.8908
▁Solomon	-11.8911
▁Vặt	-11.8911
▁Angela	-11.8912
ell	-11.8913
and	-11.8916
▁Touch	-11.8918
▁Jun	-11.8924
eo	-11.8926
▁Vang	-11.893
▁System	-11.8931
▁balls	-11.8932
▁ắc	-11.8933
▁reduced	-11.8934
▁PH	-11.8935
▁thẳm	-11.8936
▁shell	-11.8939
can	-11.8941
▁soil	-11.8942
gia	-11.8945
▁claims	-11.8947
▁underground	-11.895
▁blond	-11.8951
▁Đôn	-11.8951
▁ngạt	-11.8951
▁sadness	-11.8951
▁fanpage	-11.8954
▁Lieutenant	-11.8957
▁exhaled	-11.8958
▁management	-11.8958
▁dagger	-11.8958
▁Iphone	-11.8959
▁peaceful	-11.8961
▁industry	-11.8964
▁smoking	-11.8968
▁Gen	-11.8968
back	-11.8971
▁Card	-11.8974
lia	-11.8976
▁Jon	-11.8977
▁IC	-11.8979
▁Sex	-11.8979
▁yếm	-11.898
▁calmly	-11.8981
▁Nissan	-11.8982
▁Beauty	-11.8982
▁wagon	-11.8984
▁bitter	-11.8984
▁ngụy	-11.8987
▁Nghĩ	-11.8987
▁independent	-11.899
▁refuse	-11.8992
▁LORD	-11.8993
▁Nấm	-11.8994
▁dien	-11.8994
▁nearest	-11.8995
▁obey	-11.8996
▁sả	-11.8997
▁indicated	-11.8998
▁nới	-11.9
▁hủ	-11.9003
▁choices	-11.9003
▁Đẳng	-11.9004
▁nuối	-11.9004
▁HDMI	-11.9004
▁politics	-11.9005
▁lounge	-11.9005
zo	-11.9007
▁decent	-11.9008
▁rập	-11.9014
▁thâu	-11.9015
▁eggs	-11.9016
▁income	-11.9019
▁ứ	-11.9021
▁trace	-11.9021
▁happily	-11.9021
AC	-11.9023
ạo	-11.9024
▁fears	-11.9025
▁Vivian	-11.9025
▁Crystal	-11.9029
▁seed	-11.9032
▁snake	-11.9033
▁praise	-11.9033
▁realizing	-11.9034
▁bu	-11.9037
iz	-11.9038
▁dè	-11.9038
▁Anything	-11.9039
▁instructed	-11.904
▁butt	-11.9041
▁mĩ	-11.9048
▁sorts	-11.9048
▁traveling	-11.9048
▁Asian	-11.9049
▁cage	-11.9054
▁thou	-11.9057
▁vip	-11.9058
▁envelope	-11.9059
▁neighborhood	-11.9059
▁opens	-11.9061
▁contain	-11.9061
▁danced	-11.9065
▁lều	-11.9067
▁Natasha	-11.9068
▁Avery	-11.9068
▁Colonel	-11.9068
▁methods	-11.907
▁sấu	-11.9072
▁tilted	-11.9073
▁hatred	-11.9079
▁shout	-11.908
▁affect	-11.9087
▁núm	-11.909
▁Run	-11.9092
▁Frequency	-11.9093
▁Dưỡng	-11.9094
ator	-11.9095
▁Page	-11.9096
▁Hoan	-11.9097
▁semi	-11.9101
▁Vaio	-11.9102
▁Except	-11.9104
▁Lãng	-11.9105
▁robe	-11.9106
▁cò	-11.9106
▁crossing	-11.9107
▁trổ	-11.9108
▁increasing	-11.9109
▁pan	-11.911
▁absence	-11.9112
Trong	-11.9112
▁TĐ	-11.9113
▁spat	-11.9115
SA	-11.9115
▁GT	-11.9116
▁SD	-11.9118
▁shots	-11.9119
▁diet	-11.9121
▁Kane	-11.9123
▁bầy	-11.9123
▁guided	-11.9123
▁Dẫn	-11.9124
▁Ôn	-11.9125
▁Cầm	-11.9129
▁kisses	-11.9131
▁agrave	-11.9131
▁stolen	-11.9132
▁jealous	-11.9135
▁khang	-11.9135
▁traveled	-11.9136
▁GP	-11.9138
▁lick	-11.914
▁tablet	-11.9144
▁hopefully	-11.9146
▁Six	-11.9146
▁suôn	-11.9146
▁nightmare	-11.9146
▁pounds	-11.9147
▁Khó	-11.9148
▁beam	-11.9149
▁remembering	-11.9153
▁Logan	-11.9155
▁Bio	-11.9156
ộ	-11.9158
▁overhead	-11.916
ou	-11.9161
▁Thới	-11.9162
▁mankind	-11.9163
▁Har	-11.9163
▁chaos	-11.9163
ula	-11.9165
▁Kar	-11.9165
▁khoắn	-11.9165
▁tỉa	-11.917
▁Lữ	-11.9172
▁phượng	-11.9173
▁ơ	-11.9174
▁bịt	-11.9174
▁ladder	-11.9182
▁Either	-11.9184
▁worlds	-11.9184
▁Tào	-11.9186
▁dầm	-11.9187
▁Smashwords	-11.9188
▁boring	-11.9188
▁Lannon	-11.9188
ăng	-11.919
▁chances	-11.919
▁Inc	-11.9191
▁Bọn	-11.9192
che	-11.9193
my	-11.9193
▁Raven	-11.9194
▁Cờ	-11.92
▁khỉ	-11.9203
▁Hold	-11.9203
ề	-11.9204
▁phao	-11.9205
▁mum	-11.9206
▁lamp	-11.9207
TC	-11.9208
▁apply	-11.9209
PU	-11.9209
pin	-11.921
▁Bê	-11.9211
▁examine	-11.9212
har	-11.9212
▁Order	-11.9212
▁chuckle	-11.9213
▁Stephanie	-11.9213
ò	-11.9214
▁explosion	-11.9215
▁Yi	-11.9216
▁exists	-11.9217
▁occasion	-11.9218
▁Villa	-11.9219
▁insane	-11.9222
ging	-11.9226
ep	-11.9232
▁abuse	-11.9233
▁angle	-11.9233
well	-11.9234
▁Đám	-11.9234
▁annoyed	-11.9236
▁snap	-11.9237
▁OS	-11.9243
▁therapy	-11.9245
▁Sửu	-11.9247
▁Mon	-11.9247
▁client	-11.9248
▁staircase	-11.925
▁ngỏ	-11.9253
▁Yellow	-11.9254
▁giấm	-11.9254
▁blessing	-11.9254
▁Quà	-11.9259
tovietnam	-11.9265
▁ố	-11.9265
▁wicked	-11.9265
▁Nh	-11.9267
▁fairy	-11.9268
▁Education	-11.9268
▁Đắc	-11.9269
▁Food	-11.9272
▁sào	-11.9272
▁Lái	-11.9274
▁nhẹn	-11.9276
▁domain	-11.9276
▁gap	-11.9276
▁bass	-11.9277
▁Dear	-11.9277
▁xệ	-11.9278
▁helmet	-11.9278
▁expressed	-11.9279
▁Jeremy	-11.9279
▁Always	-11.9279
▁European	-11.9286
▁Par	-11.9287
▁sài	-11.9287
▁wanna	-11.9288
▁Lenovo	-11.929
▁Mầm	-11.9291
▁regard	-11.9297
▁repeat	-11.93
▁cooking	-11.93
▁package	-11.93
Đường	-11.9302
▁Sub	-11.9302
CS	-11.9304
▁Lin	-11.9306
▁sano	-11.9306
▁exploded	-11.9307
▁Sắp	-11.9313
▁Eagle	-11.9317
▁Noel	-11.9318
▁Pythagorean	-11.932
▁ngàng	-11.9322
ano	-11.9326
▁CB	-11.9327
▁nerves	-11.9329
▁Freq	-11.9329
▁rùa	-11.9331
▁sour	-11.9333
▁CHO	-11.9334
ác	-11.9337
▁apple	-11.9338
▁telephone	-11.9342
▁ùn	-11.9343
▁chát	-11.9346
▁traditional	-11.9348
▁pa	-11.935
▁Nm	-11.9351
▁rushing	-11.9353
▁Suy	-11.9355
▁Troy	-11.9355
▁Taxi	-11.9361
▁Bầu	-11.9363
▁nhét	-11.9363
CT	-11.9366
▁qu	-11.9366
Ch	-11.9368
▁alongside	-11.9369
▁Jung	-11.9371
▁selected	-11.9372
▁assault	-11.9376
▁Mác	-11.9378
▁variety	-11.9379
▁búa	-11.938
▁nodding	-11.9384
▁tumors	-11.9388
▁hosting	-11.939
▁ES	-11.939
▁SEA	-11.9393
port	-11.9393
▁Charlotte	-11.9394
▁applied	-11.9398
▁Huân	-11.9402
tys	-11.9405
▁Romans	-11.9405
▁pissed	-11.9407
▁winked	-11.9408
▁Dylan	-11.9409
▁Arthur	-11.9413
▁lõm	-11.9413
▁Macbook	-11.9413
▁Bu	-11.9416
▁Somehow	-11.9416
▁Cài	-11.9421
▁há	-11.9422
▁coach	-11.9424
▁Emblem	-11.9424
▁mice	-11.9425
▁patience	-11.9428
▁follows	-11.9432
▁ngời	-11.9433
▁tróc	-11.9435
▁acts	-11.9437
ris	-11.9438
▁context	-11.9444
▁drops	-11.9446
▁súp	-11.9448
▁Find	-11.9448
▁ghe	-11.9455
▁capture	-11.9455
▁Tetrac	-11.9457
▁highway	-11.9457
ID	-11.946
▁aged	-11.9461
▁Ê	-11.9466
▁Mao	-11.9467
▁Reuters	-11.9469
▁Seven	-11.9469
▁spite	-11.9469
OL	-11.9469
▁praying	-11.947
▁gào	-11.9471
▁layer	-11.9471
▁trứ	-11.9474
▁Nu	-11.9476
▁MÁY	-11.9484
▁Almost	-11.9484
▁backpack	-11.9484
▁huệ	-11.9484
▁Germany	-11.9487
▁Anthony	-11.9488
▁Try	-11.9488
▁values	-11.949
qu	-11.9491
▁equally	-11.9491
▁commercial	-11.9491
▁newly	-11.9491
shi	-11.9497
▁Suối	-11.95
▁Act	-11.9503
▁Suốt	-11.9503
▁đốn	-11.9509
ju	-11.951
▁ought	-11.9511
▁sheep	-11.9511
▁believing	-11.9514
▁intelligent	-11.9518
▁Cúp	-11.9518
▁lốc	-11.9519
▁temperature	-11.952
▁Kai	-11.9524
▁khoát	-11.9526
▁pity	-11.9532
▁Craig	-11.9533
▁Wilson	-11.9537
▁Dành	-11.9542
▁Bart	-11.9549
▁brick	-11.9551
▁tissue	-11.9554
▁interests	-11.9555
▁minor	-11.9557
▁despair	-11.9559
▁VNPT	-11.956
▁Roy	-11.9563
▁Lệnh	-11.9564
▁trans	-11.9567
▁murdered	-11.9567
▁roots	-11.9569
▁hốc	-11.9574
▁Ana	-11.9578
sis	-11.9579
CA	-11.9582
▁baseball	-11.9582
▁Better	-11.9583
▁sunshine	-11.9586
▁bored	-11.9588
▁audio	-11.959
▁halfway	-11.9591
mon	-11.9591
▁lìa	-11.9596
▁conference	-11.9596
tt	-11.9596
▁occupied	-11.9597
▁Andy	-11.9597
▁complicated	-11.9597
▁reader	-11.9598
▁Vĩ	-11.9601
▁schools	-11.9602
▁Age	-11.9604
▁Pam	-11.9605
▁AP	-11.9608
▁XI	-11.9609
▁sedan	-11.9613
▁Hat	-11.9613
▁nick	-11.9616
▁History	-11.9617
▁Marc	-11.9618
▁Chấn	-11.9621
▁um	-11.9623
▁Oscar	-11.9624
▁winning	-11.9624
▁Cụm	-11.9629
▁limbs	-11.9634
▁patch	-11.9634
▁jumping	-11.9634
▁ngẫm	-11.9635
▁đút	-11.9636
▁Yoga	-11.9636
▁Marshall	-11.9639
▁funeral	-11.9643
▁PD	-11.9644
▁siết	-11.9645
▁chưởng	-11.9647
▁cội	-11.9648
▁trỏ	-11.9648
▁dollar	-11.9657
▁instance	-11.9657
▁Vincent	-11.9658
▁philosophy	-11.9662
▁TẠI	-11.9662
ú	-11.9664
lic	-11.9664
▁Julie	-11.9666
NT	-11.9666
Công	-11.9668
▁Sounds	-11.9669
▁handful	-11.967
▁Saudi	-11.967
▁Khổng	-11.967
▁inter	-11.9671
▁circles	-11.9671
▁answering	-11.9672
▁Dấu	-11.9675
▁corners	-11.9678
▁Jess	-11.9678
▁acted	-11.9679
▁granted	-11.9679
▁Union	-11.968
▁Chad	-11.9682
▁portion	-11.9684
▁glancing	-11.9685
▁Mega	-11.9689
▁capacity	-11.9693
▁surroundings	-11.9693
▁romantic	-11.9696
▁rậm	-11.9697
▁nem	-11.9699
▁fans	-11.9699
▁university	-11.97
era	-11.97
▁halt	-11.9701
▁bore	-11.9702
▁Phá	-11.9704
▁update	-11.9706
▁RO	-11.9707
▁Vietjet	-11.9708
ue	-11.971
▁stable	-11.971
▁spit	-11.9713
▁tẻ	-11.9714
▁uh	-11.9722
▁Year	-11.9722
▁Bella	-11.9725
aki	-11.9727
▁Justice	-11.9728
▁Server	-11.9728
▁Mall	-11.973
▁Williams	-11.973
▁HBI	-11.9732
▁Stone	-11.9733
▁occasionally	-11.9733
▁Department	-11.9735
AP	-11.9735
▁switched	-11.9743
▁Den	-11.9744
▁views	-11.9746
▁Studio	-11.9748
▁farther	-11.9748
▁fancy	-11.9751
▁pitch	-11.9752
▁Huawei	-11.9754
▁bừa	-11.9754
▁elf	-11.9755
▁Rạch	-11.9755
▁log	-11.9755
▁Tỵ	-11.9755
▁worthy	-11.9756
istic	-11.976
▁Jay	-11.9761
▁hunger	-11.9763
▁pub	-11.9765
▁deadly	-11.9765
gan	-11.9765
▁wap	-11.9768
▁showbiz	-11.9774
▁barrel	-11.9774
▁des	-11.9775
▁Journal	-11.9777
▁Qúy	-11.9777
▁nhóc	-11.9778
len	-11.978
▁profit	-11.978
▁extent	-11.9781
▁Victor	-11.9784
▁APEC	-11.9786
▁Fu	-11.9786
▁bả	-11.9786
▁khiếm	-11.9788
▁cliff	-11.9789
▁Rửa	-11.9789
▁digital	-11.979
▁climbing	-11.9796
▁Hài	-11.9798
▁gained	-11.98
▁thighs	-11.9801
▁Tầm	-11.9802
▁wrap	-11.9805
nam	-11.9805
▁Tận	-11.9806
▁bung	-11.9806
▁tua	-11.9809
▁đẫm	-11.9812
▁hu	-11.9813
▁dế	-11.9814
▁greatly	-11.9816
▁satisfaction	-11.9816
▁Nature	-11.9817
▁makeup	-11.9819
▁ka	-11.9823
▁exciting	-11.9824
fer	-11.9824
▁XS	-11.9826
▁Sai	-11.9827
▁rêu	-11.9828
▁Motor	-11.9831
▁Project	-11.9831
▁bits	-11.9832
▁Drake	-11.9833
▁PS	-11.9834
ok	-11.9838
▁quật	-11.9839
▁Commander	-11.984
▁Thám	-11.9843
gon	-11.9845
▁Thưởng	-11.9848
▁Gạch	-11.9848
▁advance	-11.9849
▁mỳ	-11.9851
▁mị	-11.9854
▁arrest	-11.9855
▁suicide	-11.9859
ồng	-11.9864
▁tệp	-11.9873
▁victims	-11.9874
lay	-11.9877
▁disappointment	-11.9879
▁Họa	-11.9881
▁Ghost	-11.9883
▁disgust	-11.9883
▁reference	-11.9887
▁suspicious	-11.9888
át	-11.9888
▁buying	-11.989
▁lifetime	-11.9893
▁Derek	-11.9894
▁cụt	-11.9895
▁zombie	-11.9897
ab	-11.9903
▁vảy	-11.9904
▁unsure	-11.9906
▁Dar	-11.9907
▁strode	-11.991
▁straightened	-11.9911
▁Khảo	-11.9914
▁đực	-11.9914
▁glimpse	-11.9915
▁Design	-11.9915
▁Supreme	-11.9918
▁lobby	-11.9918
▁hut	-11.9919
▁roared	-11.992
yan	-11.9923
▁approval	-11.9925
▁Rich	-11.9929
ash	-11.9935
▁delicate	-11.9935
▁trash	-11.9936
▁đẽ	-11.9936
▁Đỉnh	-11.9945
▁Hút	-11.9946
▁Excel	-11.9948
▁Welcome	-11.9949
▁Clinton	-11.9949
▁Spencer	-11.9953
▁HQ	-11.9953
▁cleaned	-11.9954
▁EVN	-11.9957
▁Bosch	-11.9957
PA	-11.996
▁thà	-11.9961
▁midnight	-11.9965
▁SJC	-11.9965
▁Blake	-11.9966
▁Nào	-11.9975
▁Sasha	-11.9977
▁Shut	-11.9978
▁Maya	-11.9979
▁sò	-11.9979
▁Bush	-11.9979
▁blowing	-11.998
▁Benz	-11.9981
▁mè	-11.9984
▁creative	-11.9984
▁rầm	-11.9985
ôi	-11.9985
▁Eliza	-11.9989
▁adding	-11.9992
▁ceremony	-11.9992
▁chừ	-11.9993
▁descended	-11.9994
ica	-11.9996
▁Ireland	-11.9996
▁khỏa	-11.9999
▁gorgeous	-12.0001
▁cty	-12.0002
▁bond	-12.0003
▁delicious	-12.0004
▁crashed	-12.0004
▁Tel	-12.0005
▁foolish	-12.0005
▁lately	-12.0008
▁quất	-12.0008
▁tips	-12.0009
▁promises	-12.0009
▁burden	-12.0016
▁thigh	-12.0016
▁phẫn	-12.0016
▁nãy	-12.0018
▁largest	-12.0019
INE	-12.0019
ST	-12.002
▁campus	-12.0022
▁Ted	-12.0022
▁mug	-12.0024
all	-12.0026
▁cake	-12.0026
▁dig	-12.0031
▁eternity	-12.0032
▁kidding	-12.0032
ET	-12.0033
▁revenge	-12.0036
▁Surat	-12.0036
▁Triết	-12.004
▁Work	-12.0042
▁doctors	-12.0046
Đây	-12.0047
▁Zing	-12.0047
▁songs	-12.0048
▁Behind	-12.0052
▁nhô	-12.0052
▁wishes	-12.0053
▁breaths	-12.0055
▁forming	-12.0056
▁té	-12.0059
▁forgiveness	-12.0061
▁relative	-12.0061
TN	-12.0061
▁relatively	-12.0066
art	-12.0066
▁firing	-12.0068
▁wherever	-12.0071
▁Ham	-12.0072
▁Ngồi	-12.0072
▁pipe	-12.0073
▁earned	-12.0075
CN	-12.0076
▁Temple	-12.0078
▁pad	-12.0079
▁illegal	-12.0081
▁Pen	-12.0082
▁Cain	-12.0085
▁console	-12.0085
▁shorts	-12.0085
▁Anti	-12.0089
▁tech	-12.009
ạ	-12.0091
▁stuffed	-12.0091
▁error	-12.0092
▁Mars	-12.0095
▁attempting	-12.0097
▁ồ	-12.0101
▁benefits	-12.0101
▁Colin	-12.0103
▁typical	-12.0103
▁Chiểu	-12.0109
▁Turning	-12.011
▁trặc	-12.0112
room	-12.0113
ct	-12.0114
▁Gospel	-12.0115
pt	-12.0116
▁đấng	-12.012
▁FIFA	-12.0124
▁Swan	-12.0124
▁matching	-12.0125
▁Social	-12.0128
▁Comments	-12.0131
▁Trầm	-12.0132
▁xoăn	-12.0132
▁thét	-12.0132
▁Ann	-12.0134
▁rent	-12.0136
▁zero	-12.0136
▁ages	-12.0142
▁gram	-12.0142
▁Cắt	-12.0143
▁monsters	-12.0144
▁TPP	-12.0145
▁warn	-12.0147
▁witnessed	-12.0149
▁úp	-12.0153
▁swords	-12.0154
▁nails	-12.0156
▁interior	-12.0156
▁kè	-12.0156
▁soda	-12.0156
▁construction	-12.0156
▁FOR	-12.0157
▁swimming	-12.016
▁Trevor	-12.016
bit	-12.0161
▁attempts	-12.0166
▁Set	-12.0167
▁waking	-12.0168
▁Range	-12.0171
▁preferred	-12.0172
▁damp	-12.0173
▁Oai	-12.0174
▁Universe	-12.0176
OR	-12.0176
▁Start	-12.0176
▁Kiện	-12.0177
▁Add	-12.018
▁element	-12.018
▁TOP	-12.0183
▁tugged	-12.0184
▁mít	-12.0185
▁Gian	-12.0185
▁reputation	-12.0188
▁Divine	-12.0188
▁Body	-12.0188
▁Trợ	-12.0189
▁Vai	-12.0189
ini	-12.0189
ắc	-12.0194
AM	-12.0195
bs	-12.0196
▁Nhưỡng	-12.0196
▁chước	-12.0196
▁hãnh	-12.0196
▁hột	-12.0198
▁chase	-12.0198
▁Wil	-12.0199
▁requires	-12.02
▁grinning	-12.02
▁Mẹo	-12.0203
▁Táo	-12.0204
▁galaxy	-12.0204
▁Metro	-12.0207
▁February	-12.0208
▁Tivi	-12.0209
▁Nicole	-12.021
▁BB	-12.0212
▁côi	-12.0217
▁whispers	-12.022
▁Bayern	-12.0228
▁portal	-12.0229
▁Tottenham	-12.0232
▁toes	-12.0236
▁Cade	-12.0237
red	-12.0238
▁gradually	-12.0241
▁Đóng	-12.0241
▁Leo	-12.0248
▁Balance	-12.0249
▁significantly	-12.0249
▁implant	-12.0249
end	-12.025
▁Vietcombank	-12.0253
▁testing	-12.0253
▁tột	-12.0254
▁TL	-12.0255
▁clo	-12.0257
▁nôi	-12.026
▁nail	-12.0261
▁swim	-12.0262
▁Nghề	-12.0263
▁difficulty	-12.0265
▁superior	-12.0265
▁immune	-12.0265
▁Morning	-12.0265
▁id	-12.0265
▁Holly	-12.0266
▁accompanied	-12.0267
pu	-12.027
▁vùi	-12.027
▁thán	-12.0272
▁Yếu	-12.0277
▁upward	-12.0278
▁quầng	-12.028
▁cottage	-12.0281
▁TK	-12.0282
▁Las	-12.0285
▁ngán	-12.0287
dan	-12.0288
▁Regis	-12.029
▁Table	-12.0291
▁crowded	-12.0291
▁quyên	-12.0292
▁tơi	-12.0293
▁yelling	-12.0293
▁Albert	-12.0293
▁giềng	-12.0293
▁Virginia	-12.0294
▁recalled	-12.0295
▁juice	-12.0298
IE	-12.0298
▁Code	-12.0301
▁Ren	-12.0305
▁genetic	-12.0306
ami	-12.0306
▁Pay	-12.0311
ONG	-12.0313
▁factor	-12.0314
▁ideal	-12.0316
▁replace	-12.0317
▁magazine	-12.0318
▁crown	-12.0325
▁transfer	-12.0326
▁combined	-12.0327
ara	-12.0327
▁Au	-12.0329
▁civil	-12.0329
▁Heather	-12.033
▁stole	-12.0331
▁Complex	-12.0334
▁overwhelming	-12.0335
ney	-12.0335
▁XH	-12.0338
▁Dạy	-12.0341
▁Hack	-12.0341
tle	-12.0341
▁bẩy	-12.0343
▁rank	-12.0347
ves	-12.0351
▁edu	-12.0364
of	-12.0368
▁sắn	-12.0372
▁Cass	-12.0377
▁HC	-12.0377
ore	-12.0379
▁ep	-12.0379
▁chích	-12.0379
▁assigned	-12.038
▁patterns	-12.0381
▁Chloe	-12.0383
▁trá	-12.0384
▁mentally	-12.0386
▁triền	-12.0388
▁Tang	-12.0388
▁genuine	-12.0389
▁proceeded	-12.039
▁connect	-12.0392
ans	-12.0393
▁luyến	-12.0396
▁limits	-12.0398
▁Mad	-12.04
▁campaign	-12.04
▁sideways	-12.04
▁Zalo	-12.0404
▁theme	-12.0409
▁reserved	-12.0409
▁plates	-12.041
▁wipe	-12.041
wan	-12.0411
▁nè	-12.0414
▁overall	-12.0418
▁goodness	-12.0422
▁sảo	-12.0423
▁fucked	-12.0424
▁lạy	-12.0425
▁sacred	-12.0428
▁nhĩ	-12.043
▁feeding	-12.0432
ery	-12.0433
cal	-12.0433
▁cặc	-12.0433
▁Place	-12.0436
▁claws	-12.0437
▁vehicles	-12.0438
▁hook	-12.0439
▁Spanish	-12.0441
▁bitcoin	-12.0441
▁Southern	-12.0445
▁marble	-12.0445
▁Mối	-12.0447
▁nhá	-12.0449
▁Cancer	-12.045
▁Space	-12.045
▁shattered	-12.0454
▁Niết	-12.0454
▁hũ	-12.0455
▁bon	-12.0455
▁possess	-12.0457
▁Deep	-12.0457
▁Xung	-12.0458
▁positions	-12.0459
▁Pakistan	-12.046
▁deserved	-12.0461
▁DL	-12.0462
▁strip	-12.0463
▁bít	-12.0465
▁tắn	-12.0467
▁schedule	-12.0468
AS	-12.0469
▁poison	-12.047
▁adults	-12.0471
▁doc	-12.0472
▁Moira	-12.0474
ched	-12.0476
▁Rẻ	-12.0477
▁commit	-12.0481
▁mistakes	-12.0481
▁questioning	-12.0485
▁righteous	-12.0486
▁Yo	-12.0486
▁Slowly	-12.0487
▁Liam	-12.0488
▁Kh	-12.0489
▁fortune	-12.0489
ros	-12.0489
▁spin	-12.049
▁storage	-12.0491
▁Natalie	-12.0491
▁rapid	-12.0495
▁situations	-12.0498
▁thanked	-12.0501
▁formal	-12.0503
hu	-12.0504
▁Phê	-12.0504
▁laughs	-12.0504
▁receiving	-12.0507
▁County	-12.0509
▁Dubai	-12.0512
▁hức	-12.0512
gue	-12.0515
▁thoi	-12.0515
▁players	-12.0515
▁Cẩn	-12.0516
▁Lock	-12.0519
▁Vâng	-12.052
▁Acer	-12.052
▁reasonable	-12.052
▁goals	-12.0522
▁electronic	-12.0522
▁sandwich	-12.0523
▁destiny	-12.0524
▁te	-12.0524
▁Ye	-12.053
nd	-12.0533
▁steam	-12.0534
▁gọt	-12.0537
Hà	-12.0537
▁lúng	-12.0538
▁BE	-12.0539
▁Instagram	-12.0541
▁Scripture	-12.0541
▁prisoner	-12.0542
▁Eva	-12.0542
▁Hailey	-12.0543
▁dan	-12.0543
▁hop	-12.0545
▁frustrated	-12.0545
▁Tuân	-12.0545
▁trút	-12.0547
▁Stan	-12.0547
▁Express	-12.0548
▁phan	-12.055
▁gown	-12.0552
▁comments	-12.0553
▁chót	-12.0553
▁disciples	-12.0553
▁Sp	-12.0554
▁principles	-12.0559
▁Tia	-12.0559
ban	-12.0561
▁EC	-12.0561
ái	-12.0561
▁cheese	-12.0562
▁Thục	-12.0563
▁introduce	-12.0563
▁treasure	-12.0567
▁SM	-12.0568
▁sneak	-12.0568
▁owe	-12.057
▁Za	-12.057
▁Cù	-12.0577
▁avoided	-12.0578
▁immortal	-12.0579
▁kali	-12.058
▁apologize	-12.058
▁smirk	-12.058
▁jet	-12.0582
▁Willow	-12.0583
▁Bridge	-12.0583
▁concerning	-12.0586
▁mọt	-12.0587
▁startup	-12.0589
▁targets	-12.059
▁southern	-12.0591
▁HAGL	-12.0591
▁concluded	-12.0592
▁tab	-12.0592
▁Fed	-12.0592
▁Guitar	-12.0595
▁talent	-12.0599
▁FDI	-12.06
▁incredibly	-12.0608
▁Lượt	-12.0612
▁kicking	-12.0612
▁debt	-12.0613
▁ngẩn	-12.0615
▁Nguy	-12.0619
▁tag	-12.062
▁necklace	-12.062
ES	-12.0621
▁nhào	-12.0621
làm	-12.0621
▁affected	-12.0624
viet	-12.0625
▁ji	-12.0625
▁đò	-12.0626
▁Meanwhile	-12.0629
▁Joshua	-12.0629
tha	-12.063
▁oC	-12.0633
▁crawl	-12.0634
▁Cafe	-12.0634
MO	-12.0634
▁Ron	-12.0636
▁fantasy	-12.0637
▁carved	-12.0638
ability	-12.064
▁Chase	-12.064
▁stained	-12.0643
▁Je	-12.0644
we	-12.0644
▁phen	-12.0646
▁Sóng	-12.0647
▁meditation	-12.065
▁vẫy	-12.065
gg	-12.0651
▁amazed	-12.0654
▁MD	-12.0658
▁leadership	-12.0658
ena	-12.0659
ded	-12.066
▁lồi	-12.066
▁Karen	-12.0663
▁contrast	-12.0663
▁hired	-12.0665
▁Bin	-12.0666
▁bushes	-12.0668
▁electric	-12.0668
▁prayers	-12.0671
▁roads	-12.0672
▁Ella	-12.0674
▁Shadow	-12.0674
▁lazada	-12.0675
▁giục	-12.0675
▁Francis	-12.0676
▁neighbor	-12.0677
ora	-12.0678
▁NK	-12.0679
▁moaned	-12.0682
▁Seeing	-12.0682
▁Mor	-12.0682
▁explains	-12.0682
▁Fox	-12.0683
MT	-12.0685
▁conscience	-12.0686
▁thốn	-12.0689
▁developing	-12.069
▁stiff	-12.0693
ious	-12.0696
▁VĐV	-12.0696
▁Camp	-12.0698
▁prisoners	-12.0701
▁Hóc	-12.0702
▁amin	-12.0703
▁LS	-12.0709
▁grounds	-12.0709
▁assistance	-12.0709
cing	-12.0709
▁BÁN	-12.0709
▁wolves	-12.0713
▁solve	-12.0714
ường	-12.0717
ick	-12.0719
▁oak	-12.0719
oon	-12.072
▁Mệnh	-12.0722
▁licked	-12.0726
▁mọng	-12.073
ical	-12.073
▁practical	-12.0732
▁bearing	-12.0736
▁Women	-12.0739
▁shiny	-12.074
▁flung	-12.0744
SC	-12.0746
▁punched	-12.0747
phi	-12.0747
ND	-12.0749
▁GM	-12.075
▁Barbara	-12.0756
▁spear	-12.0761
▁Lôi	-12.0762
▁assistant	-12.0762
▁Party	-12.0762
▁oto	-12.0762
▁laying	-12.0763
▁occur	-12.0765
▁rat	-12.0768
▁TA	-12.0769
▁SMS	-12.077
▁Tina	-12.0772
▁ribs	-12.0772
▁pouring	-12.0772
▁Especially	-12.0773
▁lăm	-12.0773
▁sidewalk	-12.0775
▁cries	-12.0775
▁flood	-12.078
▁Sue	-12.078
▁Yron	-12.0781
▁darted	-12.0782
▁Aye	-12.0783
hot	-12.0783
▁Sin	-12.0784
▁veins	-12.0787
over	-12.0789
▁Tịch	-12.0795
▁căm	-12.0795
ON	-12.0799
▁Uyển	-12.0799
▁BBC	-12.08
▁faithful	-12.0801
▁CĐV	-12.0802
ec	-12.0803
▁shelf	-12.0807
ned	-12.0807
vn	-12.0808
▁Quay	-12.0809
thi	-12.0809
▁slot	-12.081
▁visiting	-12.081
▁tender	-12.0811
▁Liga	-12.0812
▁găng	-12.0817
▁artist	-12.0817
lar	-12.0818
▁meetings	-12.082
▁Battle	-12.0822
PT	-12.0822
▁scandal	-12.0823
▁tested	-12.0825
▁realise	-12.0827
▁hươu	-12.0829
▁Toni	-12.0831
▁WHO	-12.0832
▁observe	-12.0838
▁sần	-12.084
▁Micah	-12.0846
▁casually	-12.0848
▁VT	-12.0848
▁Angie	-12.0849
▁territory	-12.085
▁outcome	-12.0851
▁Ea	-12.0852
▁humor	-12.0852
▁Tuyền	-12.0853
▁compassion	-12.0854
▁Phàm	-12.0855
▁Clip	-12.086
▁củi	-12.0861
▁customer	-12.0866
ld	-12.0869
▁Búp	-12.0869
▁Bad	-12.087
▁Nhãn	-12.0871
▁talks	-12.0872
▁nạo	-12.0872
▁Unless	-12.0873
▁holiday	-12.0873
▁Ran	-12.0873
▁Tao	-12.0875
▁Kennedy	-12.0876
ations	-12.0877
▁exited	-12.0878
▁Trại	-12.088
▁Lorio	-12.0882
▁readers	-12.0882
▁spreading	-12.0884
▁professor	-12.0885
▁trệ	-12.0888
▁blockchain	-12.0889
▁Mất	-12.0891
▁nắn	-12.0893
▁regarded	-12.0893
▁basically	-12.0894
▁Director	-12.0894
▁permanent	-12.0895
▁hắt	-12.0897
ida	-12.0899
▁Wu	-12.0899
mu	-12.0899
▁diesel	-12.0902
▁Qu	-12.0903
▁Christianity	-12.0903
▁soaked	-12.0907
▁latter	-12.0907
▁edges	-12.0908
ians	-12.0909
▁Lilly	-12.0911
▁Tội	-12.0912
▁Vẻ	-12.0913
▁Hết	-12.0916
▁trượng	-12.0919
▁ngòi	-12.092
▁believes	-12.0921
▁bèo	-12.0921
▁NT	-12.0927
EL	-12.0928
▁slaves	-12.0932
▁facility	-12.0932
▁yanked	-12.0933
rid	-12.0935
▁mứt	-12.0935
▁AIDS	-12.0937
▁Much	-12.0937
ible	-12.0941
iều	-12.0945
▁angrily	-12.0945
▁bolt	-12.0945
▁VH	-12.0949
▁offline	-12.0949
▁Mãi	-12.0949
ria	-12.095
set	-12.095
▁succeed	-12.0951
▁noble	-12.0952
▁Flynn	-12.0954
▁Family	-12.0955
▁diễm	-12.0955
▁Đo	-12.0955
our	-12.0956
▁vessel	-12.0956
ui	-12.0957
▁bio	-12.0959
▁Cú	-12.0959
▁Story	-12.0964
▁Knight	-12.0965
▁controls	-12.0966
▁whils	-12.0967
tal	-12.0968
▁sô	-12.097
▁fury	-12.0971
▁Ư	-12.0974
▁Sung	-12.0978
ming	-12.0978
▁Dana	-12.0979
▁Gương	-12.098
▁ruin	-12.098
las	-12.098
▁bikini	-12.098
▁VNCH	-12.0981
▁bull	-12.0981
▁Gil	-12.0982
▁bích	-12.0982
▁steep	-12.0983
▁linked	-12.0988
▁Diego	-12.0989
ag	-12.0991
▁Smartphone	-12.0993
rit	-12.0995
▁shouts	-12.0996
AH	-12.0996
▁beloved	-12.0998
▁Nhâm	-12.0998
▁concerns	-12.0999
▁Agent	-12.1
▁Dee	-12.1006
▁limit	-12.1007
▁signaling	-12.1009
▁arrested	-12.101
▁drawer	-12.1013
▁bullets	-12.1014
▁squeeze	-12.1014
▁Xưởng	-12.1015
▁ADN	-12.1016
▁purposes	-12.1016
▁communicate	-12.1017
▁CAO	-12.1019
dor	-12.102
▁Bridget	-12.102
▁crushed	-12.1022
▁Wednesday	-12.1024
▁floated	-12.1026
OS	-12.1026
▁Km	-12.1027
▁shakes	-12.1028
▁ultimate	-12.103
▁ticket	-12.103
▁occasional	-12.1031
▁wishing	-12.1032
▁zin	-12.1034
▁blown	-12.1034
▁adjusted	-12.1035
▁vờ	-12.1036
▁Trâm	-12.1037
▁Bơm	-12.1038
▁ếch	-12.104
NN	-12.1042
▁concentrate	-12.1043
▁el	-12.1044
▁toái	-12.1046
▁curtain	-12.1048
▁grunted	-12.1048
▁bid	-12.1052
▁Lazada	-12.1054
▁vacation	-12.1054
▁referred	-12.1055
ings	-12.1055
▁Station	-12.1056
▁concentration	-12.1056
▁sọ	-12.1057
OC	-12.1057
▁clicked	-12.1063
▁Russia	-12.1064
▁severe	-12.1066
▁flashing	-12.1067
▁utter	-12.1068
▁scar	-12.1069
lat	-12.1069
▁defined	-12.1069
▁PSG	-12.107
▁Tears	-12.107
▁Khiêm	-12.107
▁Fair	-12.1075
▁clinical	-12.1083
▁Fear	-12.1083
▁PDF	-12.1085
▁cốm	-12.1086
ủ	-12.1088
▁rings	-12.109
ls	-12.1095
▁Randy	-12.1095
▁oai	-12.1096
tter	-12.1096
▁subtle	-12.1098
▁anticipation	-12.1099
▁Condotel	-12.1099
▁costs	-12.1099
▁bush	-12.11
ew	-12.1102
▁váng	-12.1103
▁Mart	-12.1104
▁Village	-12.1105
IL	-12.1109
▁Force	-12.111
▁Latin	-12.111
▁bomb	-12.1111
▁php	-12.1112
▁Niềm	-12.1113
▁Thỏa	-12.1113
▁UN	-12.1114
▁flag	-12.1116
▁Valley	-12.1117
▁quest	-12.1122
▁nao	-12.1123
▁dragging	-12.1125
▁returns	-12.1126
▁displayed	-12.1129
ANG	-12.1131
▁alternative	-12.1131
IP	-12.1134
▁vun	-12.1135
▁Mưa	-12.1135
▁xấp	-12.1135
▁helpful	-12.1137
▁Ge	-12.1139
▁sheer	-12.114
▁sỡ	-12.1141
▁allows	-12.1141
▁demands	-12.1143
▁MTTQ	-12.1143
▁Thằng	-12.1146
▁sòng	-12.1147
▁economy	-12.1147
▁beliefs	-12.1148
▁machines	-12.115
▁spy	-12.1152
▁Kạn	-12.1153
▁Gioan	-12.1155
▁Ultra	-12.1156
▁striking	-12.1156
ev	-12.1157
▁rơm	-12.1158
▁Lông	-12.1159
▁monitor	-12.116
▁silicon	-12.116
▁Mực	-12.1162
▁fierce	-12.1162
▁yourselves	-12.1165
▁trailed	-12.1165
ất	-12.1165
yn	-12.1166
▁snatched	-12.1166
▁flicked	-12.1167
sha	-12.1168
▁Officer	-12.117
▁Flash	-12.1173
bed	-12.1174
TA	-12.1174
HS	-12.1175
▁Lance	-12.1176
▁para	-12.1176
▁soup	-12.1176
▁mụ	-12.1179
ball	-12.1183
▁Vin	-12.1183
▁SG	-12.1183
▁slumped	-12.1183
▁awoke	-12.1184
▁CHÍNH	-12.1187
▁Hz	-12.1191
▁Network	-12.1193
▁begged	-12.1194
▁Darwin	-12.1195
▁Angus	-12.1196
▁shifting	-12.1196
▁Isaiah	-12.1196
▁generations	-12.1197
▁depth	-12.1199
▁tì	-12.1203
▁tanh	-12.1208
sta	-12.1208
▁sadly	-12.1209
▁Port	-12.1211
▁flowed	-12.1213
▁rưỡi	-12.1214
▁Bishop	-12.1214
▁hollow	-12.1215
▁Vượng	-12.1215
▁nòng	-12.1219
▁xê	-12.1221
▁kit	-12.1221
▁smirked	-12.1222
▁vãn	-12.1224
▁glances	-12.1224
▁swallow	-12.1227
▁visitors	-12.1227
▁nẵng	-12.1228
▁shallow	-12.1228
▁principle	-12.123
▁utterly	-12.123
▁DO	-12.1231
▁phượt	-12.1236
▁glorious	-12.1237
▁Nà	-12.1237
▁teams	-12.1239
▁Chín	-12.124
▁planted	-12.124
▁sặc	-12.1243
▁freely	-12.1244
▁Ned	-12.1244
ms	-12.1245
▁exchanged	-12.1245
▁sủng	-12.1246
▁outfit	-12.1248
▁wire	-12.125
rie	-12.1251
▁Test	-12.1252
▁sorrow	-12.1253
▁digging	-12.1254
▁amused	-12.1255
▁Dựng	-12.1255
AT	-12.1255
▁sufficient	-12.1256
▁stroked	-12.1256
▁Service	-12.1257
▁mis	-12.1258
▁Đấy	-12.1259
▁sharply	-12.126
▁egg	-12.1261
▁po	-12.1261
ero	-12.1261
▁session	-12.1262
▁labor	-12.1266
▁Xi	-12.127
▁CỦA	-12.1272
▁factors	-12.1273
ỏ	-12.1273
▁HOT	-12.1274
▁application	-12.1275
▁PE	-12.1276
▁intensity	-12.1277
▁denied	-12.1277
▁formation	-12.1278
▁hacker	-12.128
▁Nixon	-12.1281
EA	-12.1283
▁beg	-12.1283
▁intently	-12.1285
▁eased	-12.1291
▁casual	-12.1292
▁Vải	-12.1292
▁Cáo	-12.1293
nk	-12.1299
▁Halloween	-12.1299
▁Bit	-12.13
▁Connie	-12.1301
▁temporary	-12.1304
sp	-12.1304
thu	-12.1306
▁vital	-12.131
▁parted	-12.1313
▁goods	-12.1313
▁Peace	-12.1322
▁Phone	-12.1322
▁dầy	-12.1325
▁Detective	-12.1326
▁aloud	-12.1326
▁aliens	-12.1328
▁persons	-12.133
▁Kid	-12.133
▁gravity	-12.1331
▁miserable	-12.1335
▁Roma	-12.1338
▁vietsub	-12.134
▁sore	-12.1342
▁gentleman	-12.1342
▁Emperor	-12.1344
▁guidance	-12.1344
▁vắc	-12.1346
▁fled	-12.1349
▁Rev	-12.1352
▁xáo	-12.1357
▁Lỗi	-12.1357
▁sùng	-12.1358
▁stirred	-12.1358
▁SX	-12.1362
▁Vượt	-12.1363
▁sủa	-12.1365
▁slipping	-12.1367
▁wandering	-12.1367
▁Nguyen	-12.1368
▁vênh	-12.1372
▁Rick	-12.1373
▁bứt	-12.1376
▁trầu	-12.1385
▁bưng	-12.1386
▁rude	-12.1389
▁sticking	-12.1389
▁repair	-12.1389
▁providing	-12.139
MC	-12.139
▁Chap	-12.1391
▁Tho	-12.1393
▁offers	-12.1398
▁electricity	-12.1399
▁Palm	-12.14
▁ruined	-12.1402
▁thunder	-12.1406
tam	-12.1407
▁Frost	-12.1408
▁Antonio	-12.1408
▁HH	-12.1411
▁Trade	-12.1412
▁Digital	-12.1412
▁Uber	-12.1413
▁Daily	-12.1414
▁Georgia	-12.1416
▁Mama	-12.1417
▁healed	-12.1422
▁invite	-12.1424
▁radar	-12.1426
lit	-12.1427
rum	-12.143
▁NS	-12.1431
▁backs	-12.1434
▁xòe	-12.1435
▁swinging	-12.1436
gy	-12.1441
▁agony	-12.1441
▁tòi	-12.1442
▁basket	-12.1442
áo	-12.1446
▁JW	-12.1447
▁shone	-12.1448
▁rounded	-12.1448
▁Bề	-12.1448
▁Huấn	-12.1449
▁specifically	-12.1449
▁DS	-12.145
▁Action	-12.1451
▁nai	-12.1451
▁ankle	-12.1452
▁encourage	-12.1453
cher	-12.1453
▁solar	-12.1456
▁Abby	-12.1457
▁Isaac	-12.1463
▁continually	-12.1463
▁avoiding	-12.1465
▁represent	-12.1466
▁invitation	-12.1467
▁TU	-12.1469
▁banner	-12.1472
▁Bra	-12.1473
aka	-12.1474
▁marched	-12.1474
▁Bồn	-12.1475
▁phàn	-12.1475
▁Harvard	-12.1476
▁Jinks	-12.1476
▁recorded	-12.1477
▁Casio	-12.1477
▁counted	-12.148
▁sources	-12.148
▁mattress	-12.148
▁taller	-12.1482
▁Pete	-12.1485
▁rẩy	-12.1486
▁nhún	-12.1486
▁altar	-12.1486
▁dick	-12.1487
▁vơ	-12.1489
▁axe	-12.1491
▁nerve	-12.1493
▁truyen	-12.1494
▁strongly	-12.1495
▁Andre	-12.1495
▁lad	-12.1498
▁mechanism	-12.1502
Ngày	-12.1503
▁Special	-12.1503
▁Cơn	-12.1503
▁charges	-12.1507
▁insects	-12.1507
▁dating	-12.1507
▁Felicity	-12.1508
▁pour	-12.1509
▁babies	-12.1509
▁tests	-12.151
ters	-12.1511
pha	-12.1513
▁Scotland	-12.1513
▁selfish	-12.1514
qua	-12.1515
ast	-12.1516
▁Thursday	-12.1518
▁Đột	-12.1519
▁bottles	-12.1521
▁Anyone	-12.1523
▁Contents	-12.1523
ath	-12.1525
▁breaks	-12.1526
▁casting	-12.1529
▁neighbors	-12.153
▁hesitation	-12.1532
▁Small	-12.1532
▁stares	-12.1535
CL	-12.1535
▁miếu	-12.1536
▁thoroughly	-12.1537
ăm	-12.154
▁eighteen	-12.1541
▁QUỐC	-12.1541
▁stack	-12.1545
RO	-12.1548
▁Quinn	-12.1561
▁Cool	-12.1561
▁beaten	-12.1562
▁cameras	-12.1562
▁ươm	-12.1564
▁jack	-12.1566
▁Adventure	-12.1569
▁clever	-12.1571
des	-12.1573
▁hue	-12.1574
▁Cover	-12.1577
▁retreat	-12.158
▁Sch	-12.158
▁insurance	-12.1582
▁impressive	-12.1582
▁statue	-12.1585
▁điếu	-12.1587
▁Italian	-12.1588
▁priests	-12.159
▁print	-12.159
▁nghẹn	-12.1592
▁Sandy	-12.1594
▁XX	-12.1595
▁Vinamilk	-12.1596
▁Jerry	-12.1597
▁doll	-12.1597
▁experiment	-12.1597
▁inform	-12.16
▁roi	-12.1601
▁notion	-12.1602
▁commander	-12.1602
ments	-12.1604
▁historical	-12.1608
▁shivered	-12.1608
▁Chip	-12.1609
ọc	-12.161
▁Muhammad	-12.161
▁differences	-12.161
bra	-12.1613
▁rows	-12.1614
▁poster	-12.1615
▁ngà	-12.1618
▁discovery	-12.1619
▁serum	-12.162
▁sục	-12.1622
rate	-12.1625
iya	-12.1627
▁sua	-12.163
▁scratched	-12.1631
▁Khổ	-12.1633
▁eleven	-12.1633
▁Ốc	-12.1633
▁Summer	-12.1634
▁samples	-12.1634
▁CĐT	-12.1635
▁Che	-12.1637
▁protecting	-12.1638
fully	-12.1646
▁collapse	-12.1648
▁tưng	-12.1652
▁Te	-12.1656
▁companions	-12.1656
▁expert	-12.1657
od	-12.1658
▁Knowing	-12.166
▁vò	-12.1661
▁Papa	-12.1662
▁Xinh	-12.1662
▁supported	-12.1662
▁Residence	-12.1665
▁BR	-12.1665
▁AK	-12.1667
▁nã	-12.167
▁roar	-12.167
▁trơ	-12.1671
▁SK	-12.1672
▁ultimately	-12.1673
▁midst	-12.1675
▁Thụ	-12.1677
▁Chan	-12.1678
▁tube	-12.1679
▁Vành	-12.1688
ku	-12.1689
▁wealthy	-12.1689
▁Tommy	-12.169
▁hammer	-12.169
▁Diên	-12.1692
▁Reid	-12.1695
▁Looks	-12.1695
▁lid	-12.1696
▁Hmm	-12.1696
▁awe	-12.1696
▁desired	-12.1697
▁Psalm	-12.1697
▁barrier	-12.1698
ừ	-12.1698
▁Check	-12.1699
▁BIDV	-12.1699
▁VFF	-12.1699
▁Carter	-12.1701
▁hits	-12.1705
ich	-12.1706
▁Berlin	-12.1707
kan	-12.1708
▁Drive	-12.1712
▁Dance	-12.1713
ado	-12.1713
ốc	-12.1715
▁ạt	-12.1716
▁ours	-12.1716
▁LĐ	-12.1721
▁caring	-12.1722
▁dependent	-12.1722
▁Gavin	-12.1723
ocvui	-12.1723
▁induced	-12.1723
TU	-12.1724
▁crop	-12.1726
▁Cassie	-12.1728
▁household	-12.1733
▁awesome	-12.1736
▁Sakura	-12.1737
sion	-12.1738
▁Mal	-12.1738
▁chasing	-12.1739
▁Del	-12.174
▁aspect	-12.1741
▁Switch	-12.1741
▁western	-12.1741
▁launched	-12.1749
▁washing	-12.1749
▁delivery	-12.1749
ons	-12.175
▁ngùng	-12.1751
▁evident	-12.1753
▁Capital	-12.1755
▁Elena	-12.1756
▁HDD	-12.1756
▁Gạo	-12.1757
▁regardless	-12.176
▁bounced	-12.1761
▁drained	-12.1763
▁consumed	-12.1766
▁tribe	-12.1769
▁Tháo	-12.177
▁meters	-12.1771
▁commented	-12.1773
▁AL	-12.1773
▁Use	-12.1773
▁Colorado	-12.1774
▁Third	-12.1774
▁Dài	-12.1776
▁sệt	-12.1778
ye	-12.178
▁LOG	-12.178
▁wrists	-12.1783
▁ashamed	-12.1784
▁Camille	-12.1784
▁teased	-12.1785
▁hatch	-12.1786
▁commands	-12.1786
▁Talk	-12.1788
▁Tuesday	-12.1788
▁thankful	-12.179
▁ắt	-12.179
AD	-12.1791
▁chuyen	-12.1792
▁ĐIỆN	-12.1793
▁quýt	-12.1794
▁ringing	-12.1794
▁dẫu	-12.1794
▁scary	-12.1796
▁Melanie	-12.1798
▁Mái	-12.1801
▁objective	-12.1802
▁giầy	-12.1803
▁recover	-12.1803
▁hấu	-12.1804
ass	-12.1806
▁notebook	-12.1809
lor	-12.181
▁polite	-12.181
hether	-12.1812
▁Books	-12.1812
▁Dường	-12.1815
▁tỵ	-12.1815
bank	-12.1815
▁Cody	-12.1818
▁Cross	-12.1818
US	-12.1819
▁investigate	-12.1819
▁investment	-12.182
▁UNESCO	-12.1821
▁addressed	-12.1826
▁shy	-12.1826
▁Phêrô	-12.1831
KT	-12.1831
▁provides	-12.1833
▁Karl	-12.1833
▁Boss	-12.1833
LS	-12.184
▁gospel	-12.184
▁authorities	-12.1841
▁Trans	-12.1843
▁Bel	-12.1843
eng	-12.1844
▁nặn	-12.1845
▁SSD	-12.1845
▁Bryce	-12.1845
▁vulnerable	-12.1845
▁Ấy	-12.1845
▁Raj	-12.1846
▁duỗi	-12.1846
▁heartbeat	-12.185
▁Medical	-12.1851
▁vầy	-12.1851
▁mainly	-12.1853
▁Care	-12.1855
▁fpt	-12.1855
▁dock	-12.1857
▁cure	-12.1858
ira	-12.1859
ins	-12.1863
ea	-12.1863
dar	-12.1865
▁native	-12.1865
af	-12.1868
▁ducked	-12.1868
▁Mt	-12.1869
▁chạp	-12.1869
▁software	-12.1869
▁UK	-12.1873
▁conversations	-12.1873
▁níu	-12.1874
▁CÓ	-12.1874
▁dishes	-12.1875
▁Va	-12.1879
▁biological	-12.1879
▁whispering	-12.188
▁duties	-12.1883
▁Ất	-12.1883
▁affair	-12.1887
▁Police	-12.1893
▁Radio	-12.1893
▁Crown	-12.1895
▁Chim	-12.1897
▁Wealth	-12.1898
ken	-12.1899
ties	-12.19
▁curtains	-12.19
▁phrase	-12.1901
▁Copyright	-12.1902
▁demonstrated	-12.1904
▁wasted	-12.1908
▁máng	-12.1908
▁hoán	-12.1909
Nhà	-12.191
DS	-12.1912
▁năn	-12.1913
▁cargo	-12.1913
▁scrambled	-12.1913
▁Korea	-12.1914
ối	-12.1914
▁achieved	-12.1916
▁billion	-12.1917
▁Avenue	-12.1917
▁Stella	-12.1917
▁aboard	-12.1918
▁shuddered	-12.1919
▁mướt	-12.1922
▁zone	-12.1922
▁dấn	-12.1924
▁pathway	-12.1925
fu	-12.1926
▁sealed	-12.1926
ward	-12.1926
▁Walter	-12.1927
▁Connor	-12.1927
▁TCVN	-12.1931
ug	-12.1933
▁launch	-12.1937
▁Lư	-12.1937
▁nd	-12.1937
ser	-12.1938
▁Ngộ	-12.1939
▁mách	-12.1943
py	-12.1944
▁depression	-12.1946
▁Xí	-12.1946
▁Miles	-12.1949
▁temper	-12.1951
▁ngách	-12.1951
▁Pull	-12.1955
▁chằng	-12.1955
▁deaths	-12.1958
▁rub	-12.1958
nce	-12.1958
▁Edge	-12.196
▁Terry	-12.1961
▁logical	-12.1962
▁furious	-12.1962
▁Vincom	-12.197
▁deeds	-12.197
▁Bell	-12.1972
▁booth	-12.1973
▁par	-12.1974
▁mui	-12.1976
▁rip	-12.1977
▁miracle	-12.1978
▁Beck	-12.1982
▁Khẩu	-12.1984
▁whipped	-12.1984
▁dared	-12.1986
▁Standing	-12.1987
rr	-12.1988
▁phase	-12.1988
▁prey	-12.1989
▁tẩu	-12.1991
▁canvas	-12.1992
▁Ngụy	-12.1994
▁lợp	-12.1994
▁foul	-12.1994
▁Coffee	-12.1999
▁determination	-12.1999
▁Main	-12.2001
▁intimate	-12.2001
▁carton	-12.2005
▁Yep	-12.2007
▁external	-12.2008
▁vét	-12.201
▁compare	-12.2011
▁lighting	-12.2011
▁corpse	-12.2013
uma	-12.2013
▁Christopher	-12.2014
▁lựu	-12.2014
▁plays	-12.2016
▁blades	-12.2017
▁ngửi	-12.2018
▁shoe	-12.202
LL	-12.2021
▁Line	-12.2023
▁poetry	-12.2023
▁Thuộc	-12.2023
▁ngủi	-12.2023
▁xù	-12.2025
▁fork	-12.2026
▁origin	-12.2027
▁limp	-12.2027
▁át	-12.2028
if	-12.2029
gs	-12.2029
▁hổi	-12.2031
▁disaster	-12.2032
▁frantically	-12.2033
▁era	-12.2035
▁sport	-12.2038
▁cưỡi	-12.2042
▁aircraft	-12.2043
▁dripping	-12.2043
▁ne	-12.2046
▁jpg	-12.2047
▁Rai	-12.205
▁Phút	-12.2051
▁HO	-12.2052
▁Thúc	-12.2054
▁PG	-12.2056
▁matched	-12.2057
▁Sri	-12.2058
▁chips	-12.2058
▁crouched	-12.2058
▁clan	-12.2059
ật	-12.2059
NH	-12.206
▁conduct	-12.2061
▁brightly	-12.2061
▁thiet	-12.2066
▁Tái	-12.2066
▁rít	-12.2067
▁giggle	-12.2068
▁suck	-12.2071
▁Obviously	-12.2071
▁Sierra	-12.2071
RI	-12.2072
▁countless	-12.2073
uc	-12.2074
▁HA	-12.2075
wi	-12.2076
▁thòi	-12.2077
▁hurting	-12.2078
▁File	-12.2078
▁degrees	-12.208
▁purchased	-12.2081
âm	-12.2084
▁principal	-12.2086
▁warehouse	-12.2091
▁differently	-12.2092
▁privacy	-12.2096
▁gắm	-12.2097
▁frequently	-12.2097
▁mutations	-12.2098
▁butter	-12.2099
▁Manda	-12.2099
ified	-12.21
▁thẹn	-12.2101
ani	-12.2101
▁wa	-12.2101
▁ND	-12.2103
▁injury	-12.2105
▁Hoành	-12.2108
▁Láng	-12.2109
▁assignment	-12.211
▁Vegas	-12.211
▁encouraged	-12.2113
▁devices	-12.2114
sia	-12.2115
▁Tỉ	-12.2117
▁helpless	-12.2118
gate	-12.212
▁smashed	-12.2121
▁rọi	-12.2123
▁earn	-12.2126
▁attracted	-12.2128
▁min	-12.2131
▁roughly	-12.2131
uri	-12.2133
▁uyên	-12.2135
▁weakness	-12.2136
▁Chạy	-12.2136
▁damaged	-12.2138
▁Us	-12.2138
elle	-12.2143
▁courtyard	-12.2145
ạt	-12.2145
▁darkened	-12.2146
▁choked	-12.2146
▁jean	-12.2146
▁Philips	-12.2147
ification	-12.2148
▁appointment	-12.2149
▁nướu	-12.2149
▁surrender	-12.2152
▁wheels	-12.2152
▁Trai	-12.2153
uff	-12.2155
▁classroom	-12.2155
▁Dec	-12.2159
▁NỘI	-12.2159
▁waitress	-12.216
LA	-12.2163
▁tub	-12.2163
▁compound	-12.2164
▁huỳnh	-12.2164
▁kén	-12.2166
▁Phái	-12.2167
▁plot	-12.2169
right	-12.217
▁establish	-12.2171
▁yell	-12.2172
▁ram	-12.2176
▁Tẩy	-12.2176
tes	-12.2176
▁Lucifer	-12.2179
▁unaware	-12.2179
tis	-12.2181
▁depths	-12.2181
▁employees	-12.2182
▁tasted	-12.2183
▁Type	-12.2183
▁torch	-12.2185
ổ	-12.2186
more	-12.2186
HT	-12.2188
▁squad	-12.2189
▁cồng	-12.219
▁melted	-12.2191
▁humble	-12.2192
▁Feeling	-12.2193
▁Phaolô	-12.2194
▁XSMB	-12.2194
▁wander	-12.2194
▁moonlight	-12.2194
xi	-12.2196
▁joining	-12.2198
▁imp	-12.2198
▁concert	-12.2199
▁Phấn	-12.2199
▁chao	-12.2203
▁sixty	-12.2205
▁đay	-12.2205
▁lầy	-12.2209
▁Aqua	-12.2211
▁vớ	-12.2211
▁Steven	-12.2212
▁explaining	-12.2218
▁Linda	-12.2219
▁GIA	-12.222
▁stroke	-12.2223
▁fifth	-12.2223
▁loyal	-12.2223
▁defeated	-12.2224
tv	-12.2224
▁followers	-12.2224
▁grasped	-12.2225
▁oxygen	-12.2227
▁Nghỉ	-12.2228
▁Vỹ	-12.2234
▁cautiously	-12.2235
▁crisis	-12.2238
▁contrary	-12.2238
▁Others	-12.2239
▁blocking	-12.2241
▁reluctantly	-12.2245
▁twist	-12.2245
▁license	-12.2245
▁suits	-12.2247
▁Caroline	-12.2248
▁Rập	-12.2249
▁Hồn	-12.2251
▁automatically	-12.2253
▁trợn	-12.2257
▁functions	-12.2257
▁Cháy	-12.2258
▁slightest	-12.2259
▁đóa	-12.2263
▁accomplish	-12.2264
▁suite	-12.2264
▁Án	-12.2265
▁assure	-12.2266
▁referring	-12.2268
▁CHI	-12.2268
▁ABC	-12.2269
▁xiết	-12.2269
▁cent	-12.2271
▁dealt	-12.2271
▁blink	-12.2272
▁Ag	-12.2275
▁Ball	-12.2275
rus	-12.2276
▁hỉ	-12.2276
▁lawn	-12.2276
▁Kangnam	-12.2278
▁stretching	-12.2279
▁cocked	-12.2279
▁comparison	-12.2283
▁wildly	-12.2283
▁protective	-12.2286
▁Job	-12.229
ùng	-12.2292
BA	-12.2292
▁feast	-12.2294
▁Mobi	-12.2295
AI	-12.2296
▁rốn	-12.2297
▁Neymar	-12.2298
▁hon	-12.2299
▁Freedom	-12.2303
▁Chăn	-12.2304
▁oanh	-12.2307
▁Cream	-12.2308
CI	-12.2308
▁accounts	-12.2309
▁CE	-12.2309
▁Review	-12.2309
▁balcony	-12.2313
▁candle	-12.2313
▁RE	-12.2313
▁Sadie	-12.2313
ử	-12.2315
▁rành	-12.2319
▁ôi	-12.232
▁gloves	-12.2323
▁Hard	-12.2324
▁spider	-12.2325
▁bướu	-12.2328
▁embarrassment	-12.2328
▁Chuck	-12.233
▁MO	-12.2332
mes	-12.2332
▁Almighty	-12.2333
▁behaviour	-12.2333
▁nonsense	-12.2333
▁wives	-12.2333
▁cù	-12.2334
▁surprising	-12.2335
▁aacute	-12.2336
▁Bus	-12.2338
▁crashing	-12.2339
▁greet	-12.234
▁Honor	-12.2341
▁Eleanor	-12.2343
▁recognition	-12.2343
óc	-12.2345
▁nest	-12.2347
▁xít	-12.2348
▁giun	-12.2348
▁NET	-12.2349
▁oi	-12.2351
▁manga	-12.2352
▁Album	-12.2353
▁Mas	-12.2357
▁HE	-12.2357
▁jar	-12.2357
▁Afghanistan	-12.2358
▁opportunities	-12.2358
▁possession	-12.2358
▁attended	-12.2358
▁Hand	-12.2358
▁Using	-12.2359
▁Bright	-12.2361
▁cultural	-12.2362
▁invasion	-12.2363
▁OH	-12.2363
▁adopted	-12.2364
▁daughters	-12.2365
▁confirm	-12.2367
cap	-12.2368
▁Know	-12.2371
▁rhythm	-12.2372
▁intentions	-12.2373
▁Ellie	-12.2374
▁Cris	-12.2374
▁spam	-12.2374
▁quẩn	-12.2378
▁arrows	-12.2386
▁rational	-12.2387
▁Wendy	-12.2388
▁mixture	-12.2388
▁acknowledge	-12.2389
MU	-12.2394
▁slim	-12.2396
▁beta	-12.2396
xe	-12.2396
▁Buck	-12.2397
▁hologram	-12.2398
▁Block	-12.24
▁Square	-12.2403
▁Trinity	-12.2403
▁enthusiasm	-12.2403
▁Đăk	-12.2403
▁tuột	-12.2404
▁Lành	-12.2405
▁Gb	-12.2407
▁Phẫu	-12.2408
og	-12.2408
mb	-12.2409
▁reflect	-12.2415
▁spark	-12.2416
▁sói	-12.2417
▁bend	-12.242
ae	-12.2422
▁phảng	-12.2422
▁Cambridge	-12.2423
xin	-12.2423
▁grim	-12.2424
▁engage	-12.2428
▁Tomorrow	-12.2428
▁amusement	-12.2428
▁Lạnh	-12.2429
▁Chiếu	-12.2429
▁powder	-12.2429
▁Gái	-12.243
wed	-12.2432
▁WordPress	-12.2433
▁necessarily	-12.2433
▁operations	-12.2434
▁mounted	-12.244
▁lóe	-12.2441
▁Thoa	-12.2443
ona	-12.2449
▁drama	-12.2449
▁Neo	-12.2449
rd	-12.2451
▁recovered	-12.2452
▁exception	-12.2452
▁Ôi	-12.2453
▁Vatican	-12.2458
▁chains	-12.2459
▁Ste	-12.2459
ions	-12.246
▁unlikely	-12.2462
▁beasts	-12.2464
▁selection	-12.2467
▁attorney	-12.2468
▁episode	-12.2468
ess	-12.2469
▁jerk	-12.2469
ening	-12.247
▁nghĩnh	-12.2471
▁distinct	-12.2471
▁vơi	-12.2471
▁materials	-12.2475
ib	-12.2477
▁array	-12.2478
▁growl	-12.248
▁nhíu	-12.2482
▁charm	-12.2482
▁tradition	-12.2483
▁GHPGVN	-12.2483
sco	-12.2484
▁brains	-12.2485
▁Skin	-12.2485
▁Sister	-12.2485
▁corn	-12.2486
▁trèo	-12.2489
▁Mèo	-12.249
▁spots	-12.2494
lock	-12.2494
▁babe	-12.2495
▁Market	-12.2495
▁joint	-12.2497
▁afterwards	-12.2499
▁scare	-12.25
▁dressing	-12.25
▁lifestyle	-12.25
▁goddess	-12.2503
▁CX	-12.2505
▁Tar	-12.2506
▁Tá	-12.2506
ảng	-12.2506
▁lẽo	-12.2507
▁Rain	-12.2507
▁Xứ	-12.2508
▁Shannon	-12.2509
▁Đâu	-12.2509
▁tuýp	-12.251
▁divided	-12.251
▁Upon	-12.2511
▁doubted	-12.2511
▁fitting	-12.252
▁passes	-12.2521
ati	-12.2523
▁poverty	-12.2524
mann	-12.2524
▁twins	-12.2526
▁Republic	-12.2528
▁Rừng	-12.253
▁wallet	-12.2531
▁bùi	-12.2533
▁dreaming	-12.2534
▁assist	-12.2535
▁Bữa	-12.2536
▁indicate	-12.2537
for	-12.2537
lly	-12.2539
▁computers	-12.2539
ef	-12.254
▁Kỵ	-12.254
▁increasingly	-12.2543
▁Children	-12.2545
▁seal	-12.2546
▁toast	-12.2547
▁unlocked	-12.2547
▁locker	-12.2548
▁Joy	-12.2548
▁Gods	-12.2549
▁Fortunately	-12.255
▁Bút	-12.2552
▁KTS	-12.2553
▁agency	-12.2555
day	-12.2555
RA	-12.2556
▁Bring	-12.2557
▁oxi	-12.2559
▁UB	-12.256
▁Excuse	-12.256
▁revolution	-12.256
▁detective	-12.256
▁Chiêm	-12.2561
▁tune	-12.2561
▁mải	-12.2562
▁existing	-12.2568
▁illness	-12.257
▁Franz	-12.2572
ire	-12.2572
▁fundamental	-12.2572
▁Cook	-12.2572
ùa	-12.2573
▁Devil	-12.2573
▁ritual	-12.2575
▁burnt	-12.2576
▁backlink	-12.2577
▁Study	-12.2577
▁generous	-12.2578
▁Wood	-12.2579
▁reo	-12.2579
▁Howard	-12.258
ương	-12.2581
▁illusion	-12.2581
▁chàm	-12.2581
▁aspects	-12.2582
▁confess	-12.2584
▁FDA	-12.2586
▁sam	-12.2589
dong	-12.259
▁mồng	-12.2594
▁possibilities	-12.2596
▁noticing	-12.2596
▁Hôn	-12.2596
▁Bur	-12.2597
▁Isuzu	-12.2601
▁rơ	-12.2601
win	-12.2603
▁substance	-12.2606
use	-12.2607
▁xui	-12.2608
▁Forest	-12.261
▁Gray	-12.2611
▁pound	-12.2613
▁NATO	-12.2616
▁revelation	-12.2617
▁skinny	-12.2617
▁Private	-12.2621
▁CAND	-12.2621
ốt	-12.2623
BC	-12.2625
Ó	-12.2626
▁Atletico	-12.2626
▁keen	-12.2632
▁pallet	-12.2633
▁clutched	-12.2633
ẩn	-12.2636
▁grabs	-12.2637
▁elderly	-12.2638
▁tiệt	-12.2638
▁argued	-12.2641
▁Mỗ	-12.2642
▁Sophie	-12.2642
▁Silicon	-12.2643
▁cookie	-12.2643
▁nhốt	-12.2643
▁tấc	-12.2644
▁blogger	-12.2644
▁hello	-12.2645
▁Brand	-12.2649
tar	-12.2649
▁bành	-12.2649
▁KĐT	-12.265
▁upload	-12.2651
▁nhẵn	-12.2651
din	-12.2651
▁ngáy	-12.2652
▁containing	-12.2653
▁bride	-12.2654
▁fond	-12.2657
▁Japanese	-12.2657
▁Nhỏ	-12.2658
▁bần	-12.2658
▁Penny	-12.2658
ras	-12.2659
▁mấu	-12.2659
nu	-12.266
mat	-12.2662
▁SẢN	-12.2662
▁phèn	-12.2663
▁overwhelmed	-12.2663
RC	-12.2665
▁choàng	-12.2667
▁sững	-12.2668
▁Alibaba	-12.2668
▁phỉ	-12.2668
▁del	-12.267
▁projects	-12.2671
tz	-12.2671
▁noon	-12.2674
▁poly	-12.2682
▁cups	-12.2684
▁standards	-12.2684
dge	-12.2685
▁injuries	-12.2688
PC	-12.2688
DT	-12.269
▁medium	-12.2692
▁VĂN	-12.2692
▁Huh	-12.2693
▁Form	-12.2697
bin	-12.2697
▁Bear	-12.2699
▁rẫy	-12.2699
Ph	-12.2699
▁relatives	-12.2699
▁Tru	-12.2699
▁nập	-12.2699
▁vạt	-12.2702
▁Piano	-12.2704
uong	-12.2705
▁Súng	-12.2706
▁var	-12.2709
▁accurate	-12.2712
▁mớ	-12.2714
▁Kệ	-12.2715
▁boats	-12.2715
▁À	-12.2716
Vì	-12.2719
Ng	-12.2722
▁registered	-12.2722
▁dat	-12.2724
▁pretending	-12.2726
▁righteousness	-12.2731
▁wax	-12.2732
▁shuttle	-12.2736
point	-12.2736
▁Nhựa	-12.274
▁Around	-12.274
ũ	-12.2741
▁Fane	-12.2745
▁Gene	-12.2745
▁wiping	-12.2745
MS	-12.2751
▁supper	-12.2751
ận	-12.2752
▁dish	-12.2754
▁strangers	-12.2755
▁flashlight	-12.2756
▁minister	-12.2758
▁blushed	-12.2759
▁binding	-12.2759
▁Reagan	-12.2761
▁knight	-12.2762
▁EM	-12.2763
▁Report	-12.2764
shop	-12.2768
▁inevitable	-12.2771
▁director	-12.2772
▁Alma	-12.2772
▁Mia	-12.2773
▁icy	-12.2775
▁Thỉnh	-12.2777
▁erupted	-12.2778
▁challenges	-12.2779
ological	-12.278
▁Bổn	-12.2782
▁Phanxicô	-12.2782
▁Utd	-12.2782
▁chắp	-12.2782
▁commitment	-12.2783
kar	-12.2783
▁originally	-12.2785
▁crush	-12.2786
▁twisting	-12.2786
▁Cali	-12.2786
▁BTS	-12.2788
ợ	-12.2788
▁patiently	-12.2789
▁Perfect	-12.2792
▁fleet	-12.2793
hoạt	-12.2794
▁lươn	-12.2797
▁includes	-12.2798
▁đờm	-12.2799
▁Anya	-12.2799
▁remarked	-12.28
▁freak	-12.2804
▁óng	-12.2805
▁violently	-12.2807
▁numb	-12.2808
ự	-12.2809
▁organized	-12.281
▁surprisingly	-12.2811
▁Grim	-12.2813
▁Mễ	-12.2816
▁Qui	-12.2817
▁logistics	-12.2817
▁max	-12.2817
rant	-12.2818
▁doi	-12.2818
▁curls	-12.282
▁Irish	-12.2821
▁dẻ	-12.2821
▁Einstein	-12.2824
water	-12.2825
▁Tea	-12.2825
DI	-12.2827
▁Nah	-12.2829
iff	-12.2829
ux	-12.2832
ray	-12.2833
▁shrug	-12.2835
phone	-12.2836
▁Lầu	-12.2836
▁Mass	-12.2838
▁Chile	-12.2838
▁Mat	-12.2842
▁pursue	-12.2842
▁xỉn	-12.2842
▁smells	-12.2843
▁prophet	-12.2845
▁Chỗ	-12.2846
ets	-12.2847
▁collective	-12.2848
▁prize	-12.2848
▁favour	-12.285
▁void	-12.285
▁blur	-12.2851
▁buttons	-12.2852
▁đặng	-12.2855
▁barked	-12.2859
▁lẹ	-12.286
▁lem	-12.286
▁Angels	-12.2861
▁maintained	-12.2862
▁horn	-12.2864
▁bubble	-12.287
▁secured	-12.2871
▁heated	-12.2872
▁Half	-12.2877
▁appointed	-12.2877
▁omega	-12.2882
▁Madison	-12.2882
▁ập	-12.2884
bay	-12.2885
▁realization	-12.2889
▁Cang	-12.289
▁Tree	-12.2892
▁darling	-12.2892
Giá	-12.2895
▁groan	-12.2896
▁appeal	-12.2896
▁cavern	-12.2897
▁artificial	-12.2897
▁soap	-12.2899
▁odds	-12.2899
▁Grandma	-12.2899
▁Lạy	-12.29
▁nilon	-12.2902
▁Color	-12.2902
▁Khỏe	-12.2903
▁nap	-12.2903
▁aura	-12.2904
▁repeatedly	-12.2905
▁clients	-12.2905
▁elsewhere	-12.2908
▁trọt	-12.2909
▁Trừ	-12.2912
▁vắn	-12.2914
▁Dẫu	-12.2914
▁accused	-12.2914
▁nhám	-12.2916
▁partners	-12.2917
lai	-12.2918
▁sẫm	-12.292
▁HK	-12.2921
▁discipline	-12.2921
▁score	-12.2922
▁refer	-12.2922
▁tighter	-12.2924
▁nguoi	-12.2924
▁affection	-12.2925
▁stored	-12.2926
quan	-12.2929
▁pie	-12.2929
▁magnificent	-12.2929
▁buddy	-12.2929
▁examples	-12.2932
▁transformed	-12.2932
▁celebrate	-12.2932
▁MI	-12.2933
▁rail	-12.2933
▁atop	-12.2934
▁Quê	-12.2934
▁Lexus	-12.2935
ả	-12.2936
▁Mẫn	-12.2936
▁reduce	-12.2939
vu	-12.2939
▁đươc	-12.294
▁pussy	-12.294
▁Kali	-12.2941
▁sp	-12.2941
▁Colombia	-12.2945
▁Exactly	-12.2945
▁composite	-12.295
▁perception	-12.2952
▁ON	-12.2952
▁dread	-12.2952
▁nuts	-12.2953
▁Erik	-12.2956
▁Follow	-12.2957
▁momentarily	-12.2962
▁Sound	-12.2962
▁suspicion	-12.2962
ài	-12.2962
▁Os	-12.2967
▁Duke	-12.2968
▁minded	-12.2973
may	-12.2976
▁úng	-12.2976
▁flushed	-12.298
▁Nguyện	-12.2982
▁CNN	-12.2983
▁ghosts	-12.2985
▁encountered	-12.2988
▁Haley	-12.2989
▁vien	-12.2989
▁estrogen	-12.2993
▁Amen	-12.2995
▁escort	-12.2996
▁BA	-12.2996
▁Mer	-12.2998
▁swore	-12.2998
▁instinct	-12.2999
▁Tà	-12.3
▁chổi	-12.3001
▁therapeutic	-12.3004
▁distress	-12.3006
▁needle	-12.3007
▁Trác	-12.3008
▁VGA	-12.3009
▁Earl	-12.3009
▁empire	-12.3009
▁documents	-12.301
ấn	-12.3011
▁Gan	-12.3013
ao	-12.3014
▁Bù	-12.3014
ub	-12.3015
aries	-12.3015
▁nhả	-12.3017
▁Kara	-12.3018
▁recording	-12.3018
▁reign	-12.302
▁lighter	-12.3021
▁Jetstar	-12.3025
ade	-12.3028
▁teo	-12.3029
▁Liền	-12.3031
▁Mụn	-12.3032
▁resolve	-12.3033
▁BBQ	-12.3036
form	-12.3038
nna	-12.3039
▁Bre	-12.3041
▁Vic	-12.3041
▁vũng	-12.3043
▁xy	-12.3046
▁transition	-12.3046
▁vain	-12.3047
▁sộ	-12.3047
▁wizard	-12.3048
▁rejected	-12.3049
ches	-12.305
▁Getting	-12.3054
▁Sharp	-12.3054
hai	-12.3056
▁Tảo	-12.3057
▁fireplace	-12.3058
▁Trách	-12.3058
▁thuyên	-12.3058
▁acquired	-12.3059
▁sites	-12.3059
▁Sanchez	-12.3063
▁mẩu	-12.3063
▁Hitler	-12.3063
▁chổ	-12.3065
▁tipped	-12.3068
▁Aren	-12.3069
▁Slim	-12.307
▁Outside	-12.3071
▁sickness	-12.3071
▁pursuit	-12.3073
▁THÀNH	-12.3073
▁Focus	-12.3073
▁condotel	-12.3073
▁Yahoo	-12.3074
▁Orange	-12.3074
▁Rover	-12.3074
▁Wa	-12.3074
▁Byron	-12.3075
▁hurts	-12.3075
▁dĩa	-12.3079
PL	-12.308
▁Grey	-12.3081
▁contains	-12.3082
▁flooded	-12.3083
▁debate	-12.3083
▁visual	-12.3084
uring	-12.3086
LY	-12.3087
▁Eh	-12.3088
▁cuts	-12.309
▁Manila	-12.309
▁finishing	-12.3091
▁sector	-12.3092
▁parallel	-12.3095
▁Yang	-12.3097
▁hire	-12.3097
▁Venezuela	-12.31
▁SS	-12.3101
▁appearing	-12.3101
▁Oil	-12.3101
▁ế	-12.3103
▁nơ	-12.3103
▁programs	-12.3105
▁cigar	-12.3106
▁chắt	-12.3107
▁Riversid	-12.3109
tus	-12.311
▁microphone	-12.3111
▁rùi	-12.3111
▁Manager	-12.3111
▁deliberately	-12.3113
▁opponent	-12.3113
nia	-12.3114
▁Archives	-12.3117
▁piercing	-12.3117
▁civilization	-12.3118
▁Ẩm	-12.3122
▁Nhấn	-12.3122
▁shuffled	-12.3123
▁Rather	-12.3123
▁chemical	-12.3125
hand	-12.3125
ome	-12.3125
▁ách	-12.3126
▁glowed	-12.3127
▁reception	-12.3127
▁Airways	-12.3127
▁winds	-12.3129
▁dimension	-12.313
▁clung	-12.3133
▁yeu	-12.3134
▁inspired	-12.3134
▁fires	-12.3136
lessly	-12.3138
▁bullshit	-12.3138
lands	-12.3142
▁pleaded	-12.3145
▁accomplished	-12.3147
▁gán	-12.3149
▁arriving	-12.3149
▁sack	-12.3149
▁regain	-12.3151
▁sưa	-12.3152
mate	-12.3153
▁district	-12.3154
▁dreamed	-12.3154
ave	-12.3158
▁effectively	-12.3159
▁sheriff	-12.316
▁XIV	-12.3161
▁Sta	-12.3162
▁GĐ	-12.3166
▁pond	-12.3171
▁partially	-12.3172
▁suggestion	-12.3178
oi	-12.3179
▁comprehend	-12.3182
▁Giường	-12.3182
▁Phiếu	-12.3182
▁cabinet	-12.3184
▁criminals	-12.3185
▁northern	-12.3193
▁genius	-12.3193
▁múi	-12.3193
pen	-12.3196
▁organ	-12.3196
ỗ	-12.3197
ima	-12.3198
▁Jahrra	-12.3198
▁Mount	-12.3198
▁Bennett	-12.32
ố	-12.3203
▁shiver	-12.3203
▁Carolina	-12.3203
▁proven	-12.3204
▁divorce	-12.3206
view	-12.321
▁Vespa	-12.3214
▁gỏi	-12.3215
zy	-12.3215
▁EX	-12.3216
▁Cạnh	-12.3216
▁Nỗi	-12.3217
▁enzyme	-12.3218
▁Nạn	-12.3221
▁Want	-12.3222
ôn	-12.3224
▁Allie	-12.3225
▁begging	-12.3225
▁banks	-12.3226
▁FO	-12.3227
▁ar	-12.3228
▁Mag	-12.323
▁affairs	-12.3232
▁saddle	-12.3234
▁xộn	-12.3236
▁sixteen	-12.3236
pan	-12.3236
▁TTXVN	-12.3236
▁entertainment	-12.3237
ữ	-12.3238
▁politely	-12.3239
▁TPO	-12.3241
▁Snapdragon	-12.3242
▁weary	-12.3244
▁Bửu	-12.3247
▁worries	-12.3247
▁tuôn	-12.3249
▁xỉu	-12.3249
▁Pháo	-12.3255
▁lư	-12.3255
▁bold	-12.3256
▁Cloud	-12.3258
▁kindness	-12.3258
▁complained	-12.3261
▁pu	-12.3261
▁Nobel	-12.3262
▁cộ	-12.3263
▁bucket	-12.3265
▁troubled	-12.3266
▁Gates	-12.3268
▁CMND	-12.3269
▁Search	-12.3277
▁planets	-12.3278
bb	-12.3279
▁Pierre	-12.328
▁discussing	-12.3281
▁Ju	-12.3281
lla	-12.3282
▁TMĐT	-12.3285
▁CÁC	-12.3287
▁distraction	-12.3287
▁Maddie	-12.3291
▁forbidden	-12.3291
▁winced	-12.3292
▁chảnh	-12.3293
▁hum	-12.3295
▁prime	-12.3295
▁bark	-12.3295
ito	-12.3297
▁nau	-12.3298
▁Bể	-12.3298
▁suyễn	-12.3299
▁trẻo	-12.33
▁Wit	-12.3302
▁Jobs	-12.3303
▁Mister	-12.3305
▁Ark	-12.3305
ico	-12.3306
▁sipped	-12.3308
▁ward	-12.3308
▁Gala	-12.3309
▁suggesting	-12.3312
▁Hungary	-12.3313
▁Jalen	-12.3313
▁Minister	-12.3313
ock	-12.3314
▁bầm	-12.3314
DA	-12.3314
▁clutching	-12.3315
CR	-12.3319
▁Benny	-12.3319
▁flip	-12.332
▁trám	-12.3321
▁defensive	-12.3321
LT	-12.3322
▁Melbourne	-12.3324
▁churches	-12.3325
▁Soviet	-12.3327
▁shine	-12.3328
ễ	-12.3329
▁Benjamin	-12.3329
▁wrapping	-12.333
▁spilled	-12.3332
▁Ao	-12.3332
▁lane	-12.3332
▁relevant	-12.3335
▁Manuel	-12.3335
cer	-12.3335
▁nude	-12.3337
▁dwell	-12.3337
▁Khuôn	-12.334
chu	-12.3341
▁sảy	-12.3342
▁Mission	-12.3343
▁Reading	-12.3344
▁HR	-12.3348
▁Java	-12.3349
▁inquired	-12.3352
▁neatly	-12.3354
▁Gas	-12.3356
duc	-12.3357
▁tít	-12.3359
▁altogether	-12.3363
▁yield	-12.3363
▁FM	-12.3363
▁nhầy	-12.3363
▁Planet	-12.3364
▁stem	-12.3365
▁ky	-12.3365
▁đong	-12.3365
▁crimes	-12.3367
▁dột	-12.3367
▁supernatural	-12.3368
▁Wales	-12.3369
▁stores	-12.3369
▁Locke	-12.3369
▁definition	-12.337
IM	-12.3371
▁progression	-12.3372
▁Robin	-12.3373
▁Ngăn	-12.3374
▁gl	-12.3377
▁cáu	-12.3378
▁Public	-12.3379
▁râm	-12.3379
▁buffet	-12.3379
top	-12.3382
▁sniffed	-12.3387
▁stir	-12.3391
▁dismissed	-12.3392
▁VIII	-12.3394
▁lets	-12.3395
▁span	-12.3396
▁tearing	-12.3397
ấm	-12.3397
▁Need	-12.3397
TI	-12.3398
▁Dale	-12.3398
▁lim	-12.34
▁eh	-12.3401
▁requested	-12.3404
▁engines	-12.3405
▁intend	-12.3407
▁Leader	-12.341
▁Soul	-12.341
▁Cột	-12.3412
▁pdf	-12.3413
▁khoanh	-12.3413
▁ên	-12.3415
▁Walker	-12.3416
▁pounded	-12.3416
▁RA	-12.3416
ute	-12.3418
▁counting	-12.3419
▁mechanical	-12.342
▁salon	-12.342
▁circled	-12.3423
▁infinite	-12.3427
▁Thù	-12.3428
▁picnic	-12.3429
▁user	-12.3429
▁cấn	-12.3432
àn	-12.3432
▁retrieve	-12.3432
▁Vista	-12.3433
▁Chrome	-12.3435
▁Unlike	-12.3435
▁SGK	-12.3435
▁translated	-12.3436
▁xịn	-12.3436
▁hòm	-12.3438
▁hyper	-12.3438
▁Agribank	-12.344
▁paths	-12.3441
▁dơ	-12.3441
▁Ice	-12.3443
▁Sit	-12.3443
▁recovery	-12.3444
▁Babylon	-12.3444
▁Đẩy	-12.3445
▁pitched	-12.3445
▁thief	-12.3446
▁NHẤT	-12.3446
▁quây	-12.3446
rian	-12.3446
▁BQT	-12.3448
▁slender	-12.3449
▁arched	-12.3449
▁Photo	-12.3452
OU	-12.3453
▁bills	-12.3454
▁wink	-12.3455
game	-12.3456
▁catalogue	-12.3457
▁Trộn	-12.3458
hang	-12.346
▁fading	-12.3463
▁Lửa	-12.3465
▁Voice	-12.3465
▁Lotte	-12.3468
▁blankets	-12.3468
▁Thirsty	-12.3468
NA	-12.3469
▁VII	-12.347
▁Remix	-12.3474
▁Coming	-12.3474
▁posted	-12.3475
▁paced	-12.3475
▁Speed	-12.3478
▁icon	-12.3478
▁Festival	-12.3479
▁fangs	-12.348
▁Kell	-12.348
▁Zulu	-12.3481
FA	-12.3483
▁Rod	-12.3484
▁Para	-12.3484
▁phồn	-12.3484
▁Hospital	-12.3485
[...]
